{
  "version": "1.0",
  "truncation": null,
  "padding": null,
  "added_tokens": [
    {
      "id": 0,
      "content": "[PAD]",
      "single_word": false,
      "lstrip": false,
      "rstrip": false,
      "normalized": false,
      "special": true
    },
    {
      "id": 1,
      "content": "[UNK]",
      "single_word": false,
      "lstrip": false,
      "rstrip": false,
      "normalized": false,
      "special": true
    },
    {
      "id": 2,
      "content": "[BOS]",
      "single_word": false,
      "lstrip": false,
      "rstrip": false,
      "normalized": false,
      "special": true
    },
    {
      "id": 3,
      "content": "[EOS]",
      "single_word": false,
      "lstrip": false,
      "rstrip": false,
      "normalized": false,
      "special": true
    }
  ],
  "normalizer": null,
  "pre_tokenizer": {
    "type": "Whitespace"
  },
  "post_processor": null,
  "decoder": null,
  "model": {
    "type": "BPE",
    "dropout": null,
    "unk_token": null,
    "continuing_subword_prefix": null,
    "end_of_word_suffix": null,
    "fuse_unk": false,
    "byte_fallback": false,
    "ignore_merges": false,
    "vocab": {
      "[PAD]": 0,
      "[UNK]": 1,
      "[BOS]": 2,
      "[EOS]": 3,
      "\u0000": 4,
      "\u0001": 5,
      "\u0002": 6,
      "\u0003": 7,
      "\u0004": 8,
      "\b": 9,
      "\u0017": 10,
      "\u0018": 11,
      "\u0019": 12,
      "\u001f": 13,
      "!": 14,
      "\"": 15,
      "#": 16,
      "$": 17,
      "%": 18,
      "&": 19,
      "'": 20,
      "(": 21,
      ")": 22,
      "*": 23,
      "+": 24,
      ",": 25,
      "-": 26,
      ".": 27,
      "/": 28,
      "0": 29,
      "1": 30,
      "2": 31,
      "3": 32,
      "4": 33,
      "5": 34,
      "6": 35,
      "7": 36,
      "8": 37,
      "9": 38,
      ":": 39,
      ";": 40,
      "<": 41,
      "=": 42,
      ">": 43,
      "?": 44,
      "@": 45,
      "A": 46,
      "B": 47,
      "C": 48,
      "D": 49,
      "E": 50,
      "F": 51,
      "G": 52,
      "H": 53,
      "I": 54,
      "J": 55,
      "K": 56,
      "L": 57,
      "M": 58,
      "N": 59,
      "O": 60,
      "P": 61,
      "Q": 62,
      "R": 63,
      "S": 64,
      "T": 65,
      "U": 66,
      "V": 67,
      "W": 68,
      "X": 69,
      "Y": 70,
      "Z": 71,
      "[": 72,
      "\\": 73,
      "]": 74,
      "^": 75,
      "_": 76,
      "`": 77,
      "a": 78,
      "b": 79,
      "c": 80,
      "d": 81,
      "e": 82,
      "f": 83,
      "g": 84,
      "h": 85,
      "i": 86,
      "j": 87,
      "k": 88,
      "l": 89,
      "m": 90,
      "n": 91,
      "o": 92,
      "p": 93,
      "q": 94,
      "r": 95,
      "s": 96,
      "t": 97,
      "u": 98,
      "v": 99,
      "w": 100,
      "x": 101,
      "y": 102,
      "z": 103,
      "{": 104,
      "|": 105,
      "}": 106,
      "~": 107,
      "": 108,
      "": 109,
      "": 110,
      "": 111,
      "": 112,
      "": 113,
      "": 114,
      "": 115,
      "": 116,
      "": 117,
      "": 118,
      "": 119,
      "": 120,
      "": 121,
      "": 122,
      "": 123,
      "": 124,
      "¡": 125,
      "¢": 126,
      "£": 127,
      "¤": 128,
      "¥": 129,
      "¦": 130,
      "§": 131,
      "¨": 132,
      "©": 133,
      "ª": 134,
      "«": 135,
      "¬": 136,
      "­": 137,
      "®": 138,
      "¯": 139,
      "°": 140,
      "±": 141,
      "²": 142,
      "³": 143,
      "´": 144,
      "µ": 145,
      "¶": 146,
      "·": 147,
      "¸": 148,
      "¹": 149,
      "º": 150,
      "»": 151,
      "¼": 152,
      "½": 153,
      "¾": 154,
      "¿": 155,
      "À": 156,
      "Á": 157,
      "Â": 158,
      "Ã": 159,
      "Ä": 160,
      "Å": 161,
      "Æ": 162,
      "Ç": 163,
      "È": 164,
      "É": 165,
      "Ê": 166,
      "Ë": 167,
      "Ì": 168,
      "Í": 169,
      "Î": 170,
      "Ï": 171,
      "Ð": 172,
      "Ñ": 173,
      "Ò": 174,
      "Ó": 175,
      "Ô": 176,
      "Õ": 177,
      "Ö": 178,
      "×": 179,
      "Ø": 180,
      "Ù": 181,
      "Ú": 182,
      "Û": 183,
      "Ü": 184,
      "Ý": 185,
      "Þ": 186,
      "ß": 187,
      "à": 188,
      "á": 189,
      "â": 190,
      "ã": 191,
      "ä": 192,
      "å": 193,
      "æ": 194,
      "ç": 195,
      "è": 196,
      "é": 197,
      "ê": 198,
      "ë": 199,
      "ì": 200,
      "í": 201,
      "î": 202,
      "ï": 203,
      "ð": 204,
      "ñ": 205,
      "ò": 206,
      "ó": 207,
      "ô": 208,
      "õ": 209,
      "ö": 210,
      "÷": 211,
      "ø": 212,
      "ù": 213,
      "ú": 214,
      "û": 215,
      "ü": 216,
      "ý": 217,
      "þ": 218,
      "ÿ": 219,
      "Ā": 220,
      "ā": 221,
      "Ă": 222,
      "ă": 223,
      "Ą": 224,
      "ą": 225,
      "Ć": 226,
      "ć": 227,
      "Ĉ": 228,
      "ĉ": 229,
      "Ċ": 230,
      "ċ": 231,
      "Č": 232,
      "č": 233,
      "Ď": 234,
      "ď": 235,
      "Đ": 236,
      "đ": 237,
      "Ē": 238,
      "ē": 239,
      "Ĕ": 240,
      "ĕ": 241,
      "Ė": 242,
      "ė": 243,
      "Ę": 244,
      "ę": 245,
      "Ě": 246,
      "ě": 247,
      "Ĝ": 248,
      "ĝ": 249,
      "Ğ": 250,
      "ğ": 251,
      "Ġ": 252,
      "ġ": 253,
      "Ģ": 254,
      "ģ": 255,
      "Ĥ": 256,
      "ĥ": 257,
      "Ħ": 258,
      "ħ": 259,
      "Ĩ": 260,
      "ĩ": 261,
      "Ī": 262,
      "ī": 263,
      "Ĭ": 264,
      "ĭ": 265,
      "Į": 266,
      "į": 267,
      "İ": 268,
      "ı": 269,
      "Ĳ": 270,
      "ĳ": 271,
      "Ĵ": 272,
      "ĵ": 273,
      "Ķ": 274,
      "ķ": 275,
      "ĸ": 276,
      "Ĺ": 277,
      "ĺ": 278,
      "Ļ": 279,
      "ļ": 280,
      "Ľ": 281,
      "ľ": 282,
      "Ŀ": 283,
      "ŀ": 284,
      "Ł": 285,
      "ł": 286,
      "Ń": 287,
      "ń": 288,
      "Ņ": 289,
      "ņ": 290,
      "Ň": 291,
      "ň": 292,
      "ŉ": 293,
      "Ŋ": 294,
      "ŋ": 295,
      "Ō": 296,
      "ō": 297,
      "Ŏ": 298,
      "ŏ": 299,
      "Ő": 300,
      "ő": 301,
      "Œ": 302,
      "œ": 303,
      "Ŕ": 304,
      "ŕ": 305,
      "Ŗ": 306,
      "ŗ": 307,
      "Ř": 308,
      "ř": 309,
      "Ś": 310,
      "ś": 311,
      "Ŝ": 312,
      "ŝ": 313,
      "Ş": 314,
      "ş": 315,
      "Š": 316,
      "š": 317,
      "Ţ": 318,
      "ţ": 319,
      "Ť": 320,
      "ť": 321,
      "Ŧ": 322,
      "ŧ": 323,
      "Ũ": 324,
      "ũ": 325,
      "Ū": 326,
      "ū": 327,
      "Ŭ": 328,
      "ŭ": 329,
      "Ů": 330,
      "ů": 331,
      "Ű": 332,
      "ű": 333,
      "Ų": 334,
      "ų": 335,
      "Ŵ": 336,
      "ŵ": 337,
      "Ŷ": 338,
      "ŷ": 339,
      "Ÿ": 340,
      "Ź": 341,
      "ź": 342,
      "Ż": 343,
      "ż": 344,
      "Ž": 345,
      "ž": 346,
      "ſ": 347,
      "ƀ": 348,
      "Ɓ": 349,
      "Ƃ": 350,
      "ƃ": 351,
      "Ƅ": 352,
      "ƅ": 353,
      "Ɔ": 354,
      "Ƈ": 355,
      "ƈ": 356,
      "Ɖ": 357,
      "Ɗ": 358,
      "Ƌ": 359,
      "ƌ": 360,
      "ƍ": 361,
      "Ǝ": 362,
      "Ə": 363,
      "Ɛ": 364,
      "Ƒ": 365,
      "ƒ": 366,
      "Ɠ": 367,
      "Ɣ": 368,
      "ƕ": 369,
      "Ɩ": 370,
      "Ɨ": 371,
      "Ƙ": 372,
      "ƙ": 373,
      "ƚ": 374,
      "ƛ": 375,
      "Ɯ": 376,
      "Ɲ": 377,
      "ƞ": 378,
      "Ɵ": 379,
      "Ơ": 380,
      "ơ": 381,
      "Ƣ": 382,
      "ƣ": 383,
      "Ƥ": 384,
      "ƥ": 385,
      "Ʀ": 386,
      "Ƨ": 387,
      "ƨ": 388,
      "Ʃ": 389,
      "ƪ": 390,
      "ƫ": 391,
      "Ƭ": 392,
      "ƭ": 393,
      "Ʈ": 394,
      "Ư": 395,
      "ư": 396,
      "Ʊ": 397,
      "Ʋ": 398,
      "Ƴ": 399,
      "ƴ": 400,
      "Ƶ": 401,
      "ƶ": 402,
      "Ʒ": 403,
      "Ƹ": 404,
      "ƹ": 405,
      "ƺ": 406,
      "ƻ": 407,
      "Ƽ": 408,
      "ƽ": 409,
      "ƾ": 410,
      "ƿ": 411,
      "ǀ": 412,
      "ǁ": 413,
      "ǂ": 414,
      "ǃ": 415,
      "Ǎ": 416,
      "ǎ": 417,
      "Ǐ": 418,
      "ǐ": 419,
      "Ǒ": 420,
      "ǒ": 421,
      "Ǔ": 422,
      "ǔ": 423,
      "Ǖ": 424,
      "ǖ": 425,
      "Ǘ": 426,
      "ǘ": 427,
      "Ǚ": 428,
      "ǚ": 429,
      "Ǜ": 430,
      "ǜ": 431,
      "ǝ": 432,
      "Ǟ": 433,
      "ǟ": 434,
      "Ǡ": 435,
      "ǡ": 436,
      "Ǣ": 437,
      "ǣ": 438,
      "ǥ": 439,
      "Ǧ": 440,
      "ǧ": 441,
      "Ǩ": 442,
      "ǩ": 443,
      "Ǫ": 444,
      "ǫ": 445,
      "Ǭ": 446,
      "ǭ": 447,
      "Ǯ": 448,
      "ǯ": 449,
      "ǰ": 450,
      "Ǵ": 451,
      "ǵ": 452,
      "Ƕ": 453,
      "Ǹ": 454,
      "ǹ": 455,
      "Ǽ": 456,
      "ǽ": 457,
      "Ǿ": 458,
      "ǿ": 459,
      "Ȁ": 460,
      "ȁ": 461,
      "Ȃ": 462,
      "ȃ": 463,
      "Ȅ": 464,
      "ȅ": 465,
      "Ȇ": 466,
      "ȇ": 467,
      "Ȉ": 468,
      "ȉ": 469,
      "Ȋ": 470,
      "ȋ": 471,
      "Ȍ": 472,
      "ȍ": 473,
      "Ȏ": 474,
      "ȏ": 475,
      "Ȑ": 476,
      "ȑ": 477,
      "Ȓ": 478,
      "ȓ": 479,
      "Ȕ": 480,
      "ȕ": 481,
      "Ȗ": 482,
      "ȗ": 483,
      "Ș": 484,
      "ș": 485,
      "Ț": 486,
      "ț": 487,
      "Ȝ": 488,
      "ȝ": 489,
      "Ȟ": 490,
      "ȟ": 491,
      "Ƞ": 492,
      "ȡ": 493,
      "ȣ": 494,
      "Ȥ": 495,
      "ȥ": 496,
      "Ȧ": 497,
      "ȧ": 498,
      "Ȩ": 499,
      "ȩ": 500,
      "Ȫ": 501,
      "ȫ": 502,
      "Ȭ": 503,
      "ȭ": 504,
      "Ȯ": 505,
      "ȯ": 506,
      "Ȱ": 507,
      "ȱ": 508,
      "Ȳ": 509,
      "ȳ": 510,
      "ȴ": 511,
      "ȵ": 512,
      "ȶ": 513,
      "ȷ": 514,
      "ȸ": 515,
      "ȹ": 516,
      "Ⱥ": 517,
      "Ȼ": 518,
      "ȼ": 519,
      "Ƚ": 520,
      "Ⱦ": 521,
      "ȿ": 522,
      "ɀ": 523,
      "Ɂ": 524,
      "Ƀ": 525,
      "Ʉ": 526,
      "Ʌ": 527,
      "Ɍ": 528,
      "ɍ": 529,
      "ɐ": 530,
      "ɑ": 531,
      "ɒ": 532,
      "ɓ": 533,
      "ɔ": 534,
      "ɕ": 535,
      "ɖ": 536,
      "ɗ": 537,
      "ɘ": 538,
      "ə": 539,
      "ɚ": 540,
      "ɛ": 541,
      "ɜ": 542,
      "ɝ": 543,
      "ɞ": 544,
      "ɟ": 545,
      "ɠ": 546,
      "ɡ": 547,
      "ɢ": 548,
      "ɣ": 549,
      "ɤ": 550,
      "ɥ": 551,
      "ɦ": 552,
      "ɧ": 553,
      "ɨ": 554,
      "ɩ": 555,
      "ɪ": 556,
      "ɫ": 557,
      "ɬ": 558,
      "ɭ": 559,
      "ɮ": 560,
      "ɯ": 561,
      "ɰ": 562,
      "ɱ": 563,
      "ɲ": 564,
      "ɳ": 565,
      "ɴ": 566,
      "ɵ": 567,
      "ɶ": 568,
      "ɷ": 569,
      "ɸ": 570,
      "ɹ": 571,
      "ɺ": 572,
      "ɻ": 573,
      "ɼ": 574,
      "ɽ": 575,
      "ɾ": 576,
      "ɿ": 577,
      "ʀ": 578,
      "ʁ": 579,
      "ʂ": 580,
      "ʃ": 581,
      "ʄ": 582,
      "ʅ": 583,
      "ʆ": 584,
      "ʇ": 585,
      "ʈ": 586,
      "ʉ": 587,
      "ʊ": 588,
      "ʋ": 589,
      "ʌ": 590,
      "ʍ": 591,
      "ʎ": 592,
      "ʏ": 593,
      "ʐ": 594,
      "ʑ": 595,
      "ʒ": 596,
      "ʓ": 597,
      "ʔ": 598,
      "ʕ": 599,
      "ʖ": 600,
      "ʗ": 601,
      "ʘ": 602,
      "ʙ": 603,
      "ʚ": 604,
      "ʛ": 605,
      "ʜ": 606,
      "ʝ": 607,
      "ʞ": 608,
      "ʟ": 609,
      "ʠ": 610,
      "ʡ": 611,
      "ʢ": 612,
      "ʣ": 613,
      "ʤ": 614,
      "ʥ": 615,
      "ʦ": 616,
      "ʧ": 617,
      "ʨ": 618,
      "ʩ": 619,
      "ʪ": 620,
      "ʫ": 621,
      "ʬ": 622,
      "ʭ": 623,
      "ʮ": 624,
      "ʯ": 625,
      "ʰ": 626,
      "ʱ": 627,
      "ʲ": 628,
      "ʳ": 629,
      "ʴ": 630,
      "ʵ": 631,
      "ʶ": 632,
      "ʷ": 633,
      "ʸ": 634,
      "ʹ": 635,
      "ʻ": 636,
      "ʼ": 637,
      "ʽ": 638,
      "ʾ": 639,
      "ʿ": 640,
      "ˀ": 641,
      "ˁ": 642,
      "˅": 643,
      "ˆ": 644,
      "ˇ": 645,
      "ˈ": 646,
      "ˉ": 647,
      "ˊ": 648,
      "ˋ": 649,
      "ˌ": 650,
      "ˍ": 651,
      "ˎ": 652,
      "ˏ": 653,
      "ː": 654,
      "ˑ": 655,
      "˒": 656,
      "˓": 657,
      "˖": 658,
      "˗": 659,
      "˘": 660,
      "˙": 661,
      "˚": 662,
      "˛": 663,
      "˜": 664,
      "˝": 665,
      "˞": 666,
      "ˠ": 667,
      "ˡ": 668,
      "ˢ": 669,
      "ˣ": 670,
      "ˤ": 671,
      "˥": 672,
      "˦": 673,
      "˧": 674,
      "˨": 675,
      "˩": 676,
      "ˮ": 677,
      "˳": 678,
      "̀": 679,
      "́": 680,
      "̂": 681,
      "̃": 682,
      "̄": 683,
      "̅": 684,
      "̆": 685,
      "̇": 686,
      "̈": 687,
      "̉": 688,
      "̋": 689,
      "̌": 690,
      "̍": 691,
      "̎": 692,
      "̏": 693,
      "̐": 694,
      "̑": 695,
      "̒": 696,
      "̓": 697,
      "̔": 698,
      "̕": 699,
      "̖": 700,
      "̗": 701,
      "̘": 702,
      "̙": 703,
      "̚": 704,
      "̛": 705,
      "̜": 706,
      "̝": 707,
      "̞": 708,
      "̟": 709,
      "̠": 710,
      "̡": 711,
      "̤": 712,
      "̥": 713,
      "̧": 714,
      "̨": 715,
      "̩": 716,
      "̪": 717,
      "̫": 718,
      "̬": 719,
      "̭": 720,
      "̮": 721,
      "̯": 722,
      "̱": 723,
      "̲": 724,
      "̳": 725,
      "̴": 726,
      "̵": 727,
      "̶": 728,
      "̷": 729,
      "̸": 730,
      "̹": 731,
      "̺": 732,
      "̼": 733,
      "̽": 734,
      "̾": 735,
      "̿": 736,
      "̀": 737,
      "́": 738,
      "͂": 739,
      "̈́": 740,
      "ͅ": 741,
      "͆": 742,
      "͇": 743,
      "͈": 744,
      "͉": 745,
      "͊": 746,
      "͌": 747,
      "͍": 748,
      "͎": 749,
      "͏": 750,
      "͑": 751,
      "͒": 752,
      "͔": 753,
      "͕": 754,
      "͖": 755,
      "͘": 756,
      "͙": 757,
      "͚": 758,
      "͛": 759,
      "͜": 760,
      "͝": 761,
      "͞": 762,
      "͟": 763,
      "͠": 764,
      "͡": 765,
      "͢": 766,
      "ͤ": 767,
      "ͥ": 768,
      "ͧ": 769,
      "ͨ": 770,
      "ͩ": 771,
      "ͪ": 772,
      "ͫ": 773,
      "ͬ": 774,
      "ͭ": 775,
      "ͮ": 776,
      "ͯ": 777,
      "Ͱ": 778,
      "ʹ": 779,
      "͵": 780,
      "Ͷ": 781,
      "ͷ": 782,
      "ͺ": 783,
      "ͻ": 784,
      "ͼ": 785,
      "ͽ": 786,
      ";": 787,
      "Ϳ": 788,
      "΄": 789,
      "΅": 790,
      "Ά": 791,
      "·": 792,
      "Έ": 793,
      "Ή": 794,
      "Ί": 795,
      "Ό": 796,
      "Ύ": 797,
      "Ώ": 798,
      "ΐ": 799,
      "Α": 800,
      "Β": 801,
      "Γ": 802,
      "Δ": 803,
      "Ε": 804,
      "Ζ": 805,
      "Η": 806,
      "Θ": 807,
      "Ι": 808,
      "Κ": 809,
      "Λ": 810,
      "Μ": 811,
      "Ν": 812,
      "Ξ": 813,
      "Ο": 814,
      "Π": 815,
      "Ρ": 816,
      "Σ": 817,
      "Τ": 818,
      "Υ": 819,
      "Φ": 820,
      "Χ": 821,
      "Ψ": 822,
      "Ω": 823,
      "Ϊ": 824,
      "Ϋ": 825,
      "ά": 826,
      "έ": 827,
      "ή": 828,
      "ί": 829,
      "ΰ": 830,
      "α": 831,
      "β": 832,
      "γ": 833,
      "δ": 834,
      "ε": 835,
      "ζ": 836,
      "η": 837,
      "θ": 838,
      "ι": 839,
      "κ": 840,
      "λ": 841,
      "μ": 842,
      "ν": 843,
      "ξ": 844,
      "ο": 845,
      "π": 846,
      "ρ": 847,
      "ς": 848,
      "σ": 849,
      "τ": 850,
      "υ": 851,
      "φ": 852,
      "χ": 853,
      "ψ": 854,
      "ω": 855,
      "ϊ": 856,
      "ϋ": 857,
      "ό": 858,
      "ύ": 859,
      "ώ": 860,
      "ϐ": 861,
      "ϑ": 862,
      "ϒ": 863,
      "ϓ": 864,
      "ϔ": 865,
      "ϕ": 866,
      "ϖ": 867,
      "ϗ": 868,
      "Ϙ": 869,
      "ϙ": 870,
      "Ϛ": 871,
      "ϛ": 872,
      "Ϝ": 873,
      "ϝ": 874,
      "Ϟ": 875,
      "ϟ": 876,
      "Ϡ": 877,
      "ϡ": 878,
      "ϰ": 879,
      "ϱ": 880,
      "ϲ": 881,
      "ϳ": 882,
      "ϴ": 883,
      "ϵ": 884,
      "϶": 885,
      "Ϸ": 886,
      "ϸ": 887,
      "Ϲ": 888,
      "Ϻ": 889,
      "ϻ": 890,
      "ϼ": 891,
      "Ͻ": 892,
      "Ͼ": 893,
      "Ͽ": 894,
      "Ѐ": 895,
      "Ё": 896,
      "Ђ": 897,
      "Ѓ": 898,
      "Є": 899,
      "Ѕ": 900,
      "І": 901,
      "Ї": 902,
      "Ј": 903,
      "Љ": 904,
      "Њ": 905,
      "Ћ": 906,
      "Ќ": 907,
      "Ѝ": 908,
      "Ў": 909,
      "Џ": 910,
      "А": 911,
      "Б": 912,
      "В": 913,
      "Г": 914,
      "Д": 915,
      "Е": 916,
      "Ж": 917,
      "З": 918,
      "И": 919,
      "Й": 920,
      "К": 921,
      "Л": 922,
      "М": 923,
      "Н": 924,
      "О": 925,
      "П": 926,
      "Р": 927,
      "С": 928,
      "Т": 929,
      "У": 930,
      "Ф": 931,
      "Х": 932,
      "Ц": 933,
      "Ч": 934,
      "Ш": 935,
      "Щ": 936,
      "Ъ": 937,
      "Ы": 938,
      "Ь": 939,
      "Э": 940,
      "Ю": 941,
      "Я": 942,
      "а": 943,
      "б": 944,
      "в": 945,
      "г": 946,
      "д": 947,
      "е": 948,
      "ж": 949,
      "з": 950,
      "и": 951,
      "й": 952,
      "к": 953,
      "л": 954,
      "м": 955,
      "н": 956,
      "о": 957,
      "п": 958,
      "р": 959,
      "с": 960,
      "т": 961,
      "у": 962,
      "ф": 963,
      "х": 964,
      "ц": 965,
      "ч": 966,
      "ш": 967,
      "щ": 968,
      "ъ": 969,
      "ы": 970,
      "ь": 971,
      "э": 972,
      "ю": 973,
      "я": 974,
      "ѐ": 975,
      "ё": 976,
      "ђ": 977,
      "ѓ": 978,
      "є": 979,
      "ѕ": 980,
      "і": 981,
      "ї": 982,
      "ј": 983,
      "љ": 984,
      "њ": 985,
      "ћ": 986,
      "ќ": 987,
      "ѝ": 988,
      "ў": 989,
      "џ": 990,
      "Ѡ": 991,
      "ѡ": 992,
      "Ѣ": 993,
      "ѣ": 994,
      "Ѥ": 995,
      "ѥ": 996,
      "Ѧ": 997,
      "ѧ": 998,
      "Ѩ": 999,
      "ѩ": 1000,
      "Ѫ": 1001,
      "ѫ": 1002,
      "Ѭ": 1003,
      "ѭ": 1004,
      "Ѯ": 1005,
      "ѯ": 1006,
      "Ѱ": 1007,
      "ѱ": 1008,
      "Ѳ": 1009,
      "ѳ": 1010,
      "Ѵ": 1011,
      "ѵ": 1012,
      "Ѹ": 1013,
      "ѹ": 1014,
      "҉": 1015,
      "Ҋ": 1016,
      "ҋ": 1017,
      "Ҍ": 1018,
      "ҍ": 1019,
      "Ҏ": 1020,
      "ҏ": 1021,
      "Ґ": 1022,
      "ґ": 1023,
      "Ғ": 1024,
      "ғ": 1025,
      "Ҕ": 1026,
      "ҕ": 1027,
      "Җ": 1028,
      "җ": 1029,
      "Ҙ": 1030,
      "ҙ": 1031,
      "Қ": 1032,
      "қ": 1033,
      "Ҝ": 1034,
      "ҝ": 1035,
      "Ҟ": 1036,
      "ҟ": 1037,
      "Ҡ": 1038,
      "ҡ": 1039,
      "Ң": 1040,
      "ң": 1041,
      "Ҥ": 1042,
      "ҥ": 1043,
      "Ҧ": 1044,
      "ҧ": 1045,
      "Ҩ": 1046,
      "ҩ": 1047,
      "Ҫ": 1048,
      "ҫ": 1049,
      "Ҭ": 1050,
      "ҭ": 1051,
      "Ү": 1052,
      "ү": 1053,
      "Ұ": 1054,
      "ұ": 1055,
      "Ҳ": 1056,
      "ҳ": 1057,
      "Ҵ": 1058,
      "ҵ": 1059,
      "Ҷ": 1060,
      "ҷ": 1061,
      "Ҹ": 1062,
      "ҹ": 1063,
      "Һ": 1064,
      "һ": 1065,
      "Ҽ": 1066,
      "ҽ": 1067,
      "Ҿ": 1068,
      "ҿ": 1069,
      "Ӏ": 1070,
      "Ӂ": 1071,
      "ӂ": 1072,
      "Ӄ": 1073,
      "ӄ": 1074,
      "Ӆ": 1075,
      "ӆ": 1076,
      "Ӈ": 1077,
      "ӈ": 1078,
      "Ӊ": 1079,
      "ӊ": 1080,
      "Ӌ": 1081,
      "ӌ": 1082,
      "Ӎ": 1083,
      "ӎ": 1084,
      "ӏ": 1085,
      "Ӑ": 1086,
      "ӑ": 1087,
      "Ӓ": 1088,
      "ӓ": 1089,
      "Ӕ": 1090,
      "ӕ": 1091,
      "Ӗ": 1092,
      "ӗ": 1093,
      "Ә": 1094,
      "ә": 1095,
      "Ӛ": 1096,
      "ӛ": 1097,
      "Ӝ": 1098,
      "ӝ": 1099,
      "Ӟ": 1100,
      "ӟ": 1101,
      "Ӡ": 1102,
      "ӡ": 1103,
      "Ӣ": 1104,
      "ӣ": 1105,
      "Ӥ": 1106,
      "ӥ": 1107,
      "Ӧ": 1108,
      "ӧ": 1109,
      "Ө": 1110,
      "ө": 1111,
      "Ӫ": 1112,
      "ӫ": 1113,
      "Ӭ": 1114,
      "ӭ": 1115,
      "Ӯ": 1116,
      "ӯ": 1117,
      "Ӱ": 1118,
      "ӱ": 1119,
      "Ӳ": 1120,
      "ӳ": 1121,
      "Ӵ": 1122,
      "ӵ": 1123,
      "Ӷ": 1124,
      "ӷ": 1125,
      "Ӹ": 1126,
      "ӹ": 1127,
      "Ԑ": 1128,
      "ԑ": 1129,
      "Ԛ": 1130,
      "ԛ": 1131,
      "Ԝ": 1132,
      "ԝ": 1133,
      "Ա": 1134,
      "Բ": 1135,
      "Գ": 1136,
      "Դ": 1137,
      "Ե": 1138,
      "Զ": 1139,
      "Է": 1140,
      "Ը": 1141,
      "Թ": 1142,
      "Ժ": 1143,
      "Ի": 1144,
      "Լ": 1145,
      "Խ": 1146,
      "Ծ": 1147,
      "Կ": 1148,
      "Հ": 1149,
      "Ձ": 1150,
      "Ղ": 1151,
      "Ճ": 1152,
      "Մ": 1153,
      "Յ": 1154,
      "Ն": 1155,
      "Շ": 1156,
      "Ո": 1157,
      "Չ": 1158,
      "Պ": 1159,
      "Ջ": 1160,
      "Ռ": 1161,
      "Ս": 1162,
      "Վ": 1163,
      "Տ": 1164,
      "Ր": 1165,
      "Ց": 1166,
      "Ւ": 1167,
      "Փ": 1168,
      "Ք": 1169,
      "Օ": 1170,
      "Ֆ": 1171,
      "ՙ": 1172,
      "՚": 1173,
      "՛": 1174,
      "՜": 1175,
      "՝": 1176,
      "՞": 1177,
      "՟": 1178,
      "ա": 1179,
      "բ": 1180,
      "գ": 1181,
      "դ": 1182,
      "ե": 1183,
      "զ": 1184,
      "է": 1185,
      "ը": 1186,
      "թ": 1187,
      "ժ": 1188,
      "ի": 1189,
      "լ": 1190,
      "խ": 1191,
      "ծ": 1192,
      "կ": 1193,
      "հ": 1194,
      "ձ": 1195,
      "ղ": 1196,
      "ճ": 1197,
      "մ": 1198,
      "յ": 1199,
      "ն": 1200,
      "շ": 1201,
      "ո": 1202,
      "չ": 1203,
      "պ": 1204,
      "ջ": 1205,
      "ռ": 1206,
      "ս": 1207,
      "վ": 1208,
      "տ": 1209,
      "ր": 1210,
      "ց": 1211,
      "ւ": 1212,
      "փ": 1213,
      "ք": 1214,
      "օ": 1215,
      "ֆ": 1216,
      "և": 1217,
      "։": 1218,
      "֊": 1219,
      "֑": 1220,
      "֔": 1221,
      "֕": 1222,
      "֖": 1223,
      "֗": 1224,
      "֙": 1225,
      "֚": 1226,
      "֛": 1227,
      "֜": 1228,
      "֣": 1229,
      "֤": 1230,
      "֥": 1231,
      "֧": 1232,
      "֨": 1233,
      "֩": 1234,
      "ְ": 1235,
      "ֱ": 1236,
      "ֲ": 1237,
      "ֳ": 1238,
      "ִ": 1239,
      "ֵ": 1240,
      "ֶ": 1241,
      "ַ": 1242,
      "ָ": 1243,
      "ֹ": 1244,
      "ֻ": 1245,
      "ּ": 1246,
      "ֽ": 1247,
      "־": 1248,
      "ֿ": 1249,
      "ׁ": 1250,
      "ׂ": 1251,
      "׃": 1252,
      "ׄ": 1253,
      "א": 1254,
      "ב": 1255,
      "ג": 1256,
      "ד": 1257,
      "ה": 1258,
      "ו": 1259,
      "ז": 1260,
      "ח": 1261,
      "ט": 1262,
      "י": 1263,
      "ך": 1264,
      "כ": 1265,
      "ל": 1266,
      "ם": 1267,
      "מ": 1268,
      "ן": 1269,
      "נ": 1270,
      "ס": 1271,
      "ע": 1272,
      "ף": 1273,
      "פ": 1274,
      "ץ": 1275,
      "צ": 1276,
      "ק": 1277,
      "ר": 1278,
      "ש": 1279,
      "ת": 1280,
      "װ": 1281,
      "ױ": 1282,
      "ײ": 1283,
      "׳": 1284,
      "״": 1285,
      "؆": 1286,
      "؇": 1287,
      "؉": 1288,
      "؊": 1289,
      "،": 1290,
      "ؕ": 1291,
      "؛": 1292,
      "؟": 1293,
      "ء": 1294,
      "آ": 1295,
      "أ": 1296,
      "ؤ": 1297,
      "إ": 1298,
      "ئ": 1299,
      "ا": 1300,
      "ب": 1301,
      "ة": 1302,
      "ت": 1303,
      "ث": 1304,
      "ج": 1305,
      "ح": 1306,
      "خ": 1307,
      "د": 1308,
      "ذ": 1309,
      "ر": 1310,
      "ز": 1311,
      "س": 1312,
      "ش": 1313,
      "ص": 1314,
      "ض": 1315,
      "ط": 1316,
      "ظ": 1317,
      "ع": 1318,
      "غ": 1319,
      "ؾ": 1320,
      "ـ": 1321,
      "ف": 1322,
      "ق": 1323,
      "ك": 1324,
      "ل": 1325,
      "م": 1326,
      "ن": 1327,
      "ه": 1328,
      "و": 1329,
      "ى": 1330,
      "ي": 1331,
      "ً": 1332,
      "ٌ": 1333,
      "ٍ": 1334,
      "َ": 1335,
      "ُ": 1336,
      "ِ": 1337,
      "ّ": 1338,
      "ْ": 1339,
      "ٓ": 1340,
      "ٔ": 1341,
      "٠": 1342,
      "١": 1343,
      "٢": 1344,
      "٣": 1345,
      "٤": 1346,
      "٥": 1347,
      "٦": 1348,
      "٧": 1349,
      "٨": 1350,
      "٩": 1351,
      "٪": 1352,
      "٫": 1353,
      "٬": 1354,
      "٭": 1355,
      "ٴ": 1356,
      "ٹ": 1357,
      "ٺ": 1358,
      "ٻ": 1359,
      "پ": 1360,
      "ٿ": 1361,
      "ڀ": 1362,
      "ڃ": 1363,
      "ڄ": 1364,
      "چ": 1365,
      "ڇ": 1366,
      "ڈ": 1367,
      "ڑ": 1368,
      "ژ": 1369,
      "ڤ": 1370,
      "ک": 1371,
      "گ": 1372,
      "ڵ": 1373,
      "ں": 1374,
      "ھ": 1375,
      "ہ": 1376,
      "ۆ": 1377,
      "ۇ": 1378,
      "ی": 1379,
      "ے": 1380,
      "۔": 1381,
      "ە": 1382,
      "۰": 1383,
      "۱": 1384,
      "۲": 1385,
      "۳": 1386,
      "۴": 1387,
      "۵": 1388,
      "۶": 1389,
      "۷": 1390,
      "۸": 1391,
      "۹": 1392,
      "ݿ": 1393,
      "߱": 1394,
      "߸": 1395,
      "߽": 1396,
      "ं": 1397,
      "ः": 1398,
      "अ": 1399,
      "आ": 1400,
      "इ": 1401,
      "ई": 1402,
      "उ": 1403,
      "ऊ": 1404,
      "ए": 1405,
      "ऐ": 1406,
      "ऑ": 1407,
      "ओ": 1408,
      "औ": 1409,
      "क": 1410,
      "ख": 1411,
      "ग": 1412,
      "घ": 1413,
      "ङ": 1414,
      "च": 1415,
      "छ": 1416,
      "ज": 1417,
      "झ": 1418,
      "ञ": 1419,
      "ट": 1420,
      "ठ": 1421,
      "ड": 1422,
      "ढ": 1423,
      "ण": 1424,
      "त": 1425,
      "थ": 1426,
      "द": 1427,
      "ध": 1428,
      "न": 1429,
      "प": 1430,
      "फ": 1431,
      "ब": 1432,
      "भ": 1433,
      "म": 1434,
      "य": 1435,
      "र": 1436,
      "ऱ": 1437,
      "ल": 1438,
      "ळ": 1439,
      "व": 1440,
      "श": 1441,
      "ष": 1442,
      "स": 1443,
      "ह": 1444,
      "़": 1445,
      "ा": 1446,
      "ि": 1447,
      "ी": 1448,
      "ु": 1449,
      "ू": 1450,
      "ृ": 1451,
      "े": 1452,
      "ै": 1453,
      "ॉ": 1454,
      "ो": 1455,
      "ौ": 1456,
      "्": 1457,
      "ड़": 1458,
      "।": 1459,
      "०": 1460,
      "२": 1461,
      "८": 1462,
      "९": 1463,
      "ঁ": 1464,
      "ং": 1465,
      "অ": 1466,
      "আ": 1467,
      "ই": 1468,
      "উ": 1469,
      "এ": 1470,
      "ও": 1471,
      "ক": 1472,
      "খ": 1473,
      "গ": 1474,
      "ঘ": 1475,
      "ঙ": 1476,
      "চ": 1477,
      "ছ": 1478,
      "জ": 1479,
      "ট": 1480,
      "ঠ": 1481,
      "ড": 1482,
      "ণ": 1483,
      "ত": 1484,
      "থ": 1485,
      "দ": 1486,
      "ধ": 1487,
      "ন": 1488,
      "প": 1489,
      "ফ": 1490,
      "ব": 1491,
      "ভ": 1492,
      "ম": 1493,
      "য": 1494,
      "র": 1495,
      "ল": 1496,
      "শ": 1497,
      "ষ": 1498,
      "স": 1499,
      "হ": 1500,
      "়": 1501,
      "া": 1502,
      "ি": 1503,
      "ী": 1504,
      "ু": 1505,
      "ূ": 1506,
      "ৃ": 1507,
      "ে": 1508,
      "ো": 1509,
      "ৌ": 1510,
      "্": 1511,
      "ৎ": 1512,
      "ড়": 1513,
      "য়": 1514,
      "০": 1515,
      "১": 1516,
      "২": 1517,
      "৩": 1518,
      "৪": 1519,
      "৫": 1520,
      "৬": 1521,
      "৭": 1522,
      "৮": 1523,
      "৯": 1524,
      "ৰ": 1525,
      "ৱ": 1526,
      "ਂ": 1527,
      "ਅ": 1528,
      "ਆ": 1529,
      "ਇ": 1530,
      "ਈ": 1531,
      "ਉ": 1532,
      "ਏ": 1533,
      "ਐ": 1534,
      "ਓ": 1535,
      "ਕ": 1536,
      "ਖ": 1537,
      "ਗ": 1538,
      "ਘ": 1539,
      "ਚ": 1540,
      "ਛ": 1541,
      "ਜ": 1542,
      "ਝ": 1543,
      "ਟ": 1544,
      "ਠ": 1545,
      "ਡ": 1546,
      "ਢ": 1547,
      "ਣ": 1548,
      "ਤ": 1549,
      "ਥ": 1550,
      "ਦ": 1551,
      "ਧ": 1552,
      "ਨ": 1553,
      "ਪ": 1554,
      "ਫ": 1555,
      "ਬ": 1556,
      "ਭ": 1557,
      "ਮ": 1558,
      "ਯ": 1559,
      "ਰ": 1560,
      "ਲ": 1561,
      "ਵ": 1562,
      "ਸ": 1563,
      "ਹ": 1564,
      "਻": 1565,
      "਼": 1566,
      "ਾ": 1567,
      "ਿ": 1568,
      "ੀ": 1569,
      "ੁ": 1570,
      "ੂ": 1571,
      "ੇ": 1572,
      "ੈ": 1573,
      "ੋ": 1574,
      "ੌ": 1575,
      "੍": 1576,
      "ੜ": 1577,
      "ੰ": 1578,
      "ੱ": 1579,
      "ં": 1580,
      "અ": 1581,
      "આ": 1582,
      "ઇ": 1583,
      "ઈ": 1584,
      "ઉ": 1585,
      "ઊ": 1586,
      "એ": 1587,
      "ઐ": 1588,
      "ઓ": 1589,
      "ક": 1590,
      "ખ": 1591,
      "ગ": 1592,
      "ઘ": 1593,
      "ચ": 1594,
      "છ": 1595,
      "જ": 1596,
      "ઝ": 1597,
      "ટ": 1598,
      "ઠ": 1599,
      "ડ": 1600,
      "ઢ": 1601,
      "ણ": 1602,
      "ત": 1603,
      "થ": 1604,
      "દ": 1605,
      "ધ": 1606,
      "ન": 1607,
      "પ": 1608,
      "ફ": 1609,
      "બ": 1610,
      "ભ": 1611,
      "મ": 1612,
      "ય": 1613,
      "ર": 1614,
      "લ": 1615,
      "ળ": 1616,
      "વ": 1617,
      "શ": 1618,
      "ષ": 1619,
      "સ": 1620,
      "હ": 1621,
      "ા": 1622,
      "િ": 1623,
      "ી": 1624,
      "ુ": 1625,
      "ૂ": 1626,
      "ૃ": 1627,
      "ે": 1628,
      "ૈ": 1629,
      "ો": 1630,
      "્": 1631,
      "૦": 1632,
      "૧": 1633,
      "૮": 1634,
      "ଁ": 1635,
      "ଂ": 1636,
      "ଅ": 1637,
      "ଆ": 1638,
      "ଇ": 1639,
      "ଉ": 1640,
      "ଏ": 1641,
      "କ": 1642,
      "ଖ": 1643,
      "ଗ": 1644,
      "ଘ": 1645,
      "ଙ": 1646,
      "ଚ": 1647,
      "ଛ": 1648,
      "ଞ": 1649,
      "ଟ": 1650,
      "ଡ": 1651,
      "ଢ": 1652,
      "ଣ": 1653,
      "ତ": 1654,
      "ଥ": 1655,
      "ଦ": 1656,
      "ଧ": 1657,
      "ନ": 1658,
      "ପ": 1659,
      "ଫ": 1660,
      "ବ": 1661,
      "ଭ": 1662,
      "ମ": 1663,
      "ଯ": 1664,
      "ର": 1665,
      "ଲ": 1666,
      "ଳ": 1667,
      "ଶ": 1668,
      "ଷ": 1669,
      "ସ": 1670,
      "ହ": 1671,
      "଼": 1672,
      "ା": 1673,
      "ି": 1674,
      "ୀ": 1675,
      "ୁ": 1676,
      "ୂ": 1677,
      "ୃ": 1678,
      "େ": 1679,
      "ୋ": 1680,
      "୍": 1681,
      "ୟ": 1682,
      "ୱ": 1683,
      "அ": 1684,
      "ஆ": 1685,
      "இ": 1686,
      "உ": 1687,
      "எ": 1688,
      "ஏ": 1689,
      "ஒ": 1690,
      "க": 1691,
      "஗": 1692,
      "ங": 1693,
      "ச": 1694,
      "ஞ": 1695,
      "ட": 1696,
      "ண": 1697,
      "த": 1698,
      "ந": 1699,
      "ன": 1700,
      "ப": 1701,
      "ம": 1702,
      "ய": 1703,
      "ர": 1704,
      "ற": 1705,
      "ல": 1706,
      "ள": 1707,
      "ழ": 1708,
      "வ": 1709,
      "ஸ": 1710,
      "ஹ": 1711,
      "ா": 1712,
      "ி": 1713,
      "ீ": 1714,
      "ு": 1715,
      "ூ": 1716,
      "ெ": 1717,
      "ே": 1718,
      "ை": 1719,
      "ொ": 1720,
      "ோ": 1721,
      "்": 1722,
      "ం": 1723,
      "అ": 1724,
      "ఆ": 1725,
      "ఇ": 1726,
      "ఈ": 1727,
      "ఉ": 1728,
      "ఎ": 1729,
      "ఏ": 1730,
      "ఒ": 1731,
      "క": 1732,
      "ఖ": 1733,
      "గ": 1734,
      "చ": 1735,
      "జ": 1736,
      "ట": 1737,
      "డ": 1738,
      "ఢ": 1739,
      "ణ": 1740,
      "త": 1741,
      "థ": 1742,
      "ద": 1743,
      "ధ": 1744,
      "న": 1745,
      "ప": 1746,
      "ఫ": 1747,
      "బ": 1748,
      "భ": 1749,
      "మ": 1750,
      "య": 1751,
      "ర": 1752,
      "ల": 1753,
      "ళ": 1754,
      "వ": 1755,
      "శ": 1756,
      "ష": 1757,
      "స": 1758,
      "హ": 1759,
      "ా": 1760,
      "ి": 1761,
      "ీ": 1762,
      "ు": 1763,
      "ూ": 1764,
      "ృ": 1765,
      "ె": 1766,
      "ే": 1767,
      "ై": 1768,
      "ొ": 1769,
      "ో": 1770,
      "్": 1771,
      "ౖ": 1772,
      "౯": 1773,
      "ಂ": 1774,
      "ಃ": 1775,
      "ಅ": 1776,
      "ಆ": 1777,
      "ಇ": 1778,
      "ಈ": 1779,
      "ಉ": 1780,
      "ಎ": 1781,
      "ಕ": 1782,
      "ಗ": 1783,
      "ಚ": 1784,
      "ಜ": 1785,
      "ಟ": 1786,
      "ಡ": 1787,
      "ತ": 1788,
      "ಥ": 1789,
      "ದ": 1790,
      "ಧ": 1791,
      "ನ": 1792,
      "ಪ": 1793,
      "ಬ": 1794,
      "ಭ": 1795,
      "ಮ": 1796,
      "ಯ": 1797,
      "ರ": 1798,
      "ಲ": 1799,
      "ಳ": 1800,
      "ವ": 1801,
      "ಶ": 1802,
      "ಷ": 1803,
      "ಸ": 1804,
      "ಹ": 1805,
      "ಾ": 1806,
      "ಿ": 1807,
      "ೀ": 1808,
      "ು": 1809,
      "ೂ": 1810,
      "ೆ": 1811,
      "ೇ": 1812,
      "ೈ": 1813,
      "ೊ": 1814,
      "ೋ": 1815,
      "್": 1816,
      "೧": 1817,
      "೩": 1818,
      "೪": 1819,
      "ം": 1820,
      "അ": 1821,
      "ആ": 1822,
      "ഇ": 1823,
      "ഈ": 1824,
      "ഉ": 1825,
      "എ": 1826,
      "ഏ": 1827,
      "ഒ": 1828,
      "ഓ": 1829,
      "ക": 1830,
      "ഖ": 1831,
      "ഗ": 1832,
      "ങ": 1833,
      "ച": 1834,
      "ഛ": 1835,
      "ജ": 1836,
      "ഞ": 1837,
      "ട": 1838,
      "ഠ": 1839,
      "ഡ": 1840,
      "ഢ": 1841,
      "ണ": 1842,
      "ത": 1843,
      "ഥ": 1844,
      "ദ": 1845,
      "ധ": 1846,
      "ന": 1847,
      "പ": 1848,
      "ബ": 1849,
      "ഭ": 1850,
      "മ": 1851,
      "യ": 1852,
      "ര": 1853,
      "റ": 1854,
      "ല": 1855,
      "ള": 1856,
      "ഴ": 1857,
      "വ": 1858,
      "ശ": 1859,
      "ഷ": 1860,
      "സ": 1861,
      "ഹ": 1862,
      "ാ": 1863,
      "ി": 1864,
      "ീ": 1865,
      "ു": 1866,
      "ൂ": 1867,
      "ൃ": 1868,
      "െ": 1869,
      "േ": 1870,
      "ൈ": 1871,
      "ൊ": 1872,
      "ോ": 1873,
      "ൌ": 1874,
      "്": 1875,
      "ൗ": 1876,
      "ൺ": 1877,
      "ൻ": 1878,
      "ർ": 1879,
      "ൽ": 1880,
      "ൾ": 1881,
      "ං": 1882,
      "ල": 1883,
      "ස": 1884,
      "හ": 1885,
      "ි": 1886,
      "ก": 1887,
      "ข": 1888,
      "ค": 1889,
      "ฆ": 1890,
      "ง": 1891,
      "จ": 1892,
      "ฉ": 1893,
      "ช": 1894,
      "ซ": 1895,
      "ญ": 1896,
      "ฎ": 1897,
      "ฏ": 1898,
      "ฐ": 1899,
      "ฒ": 1900,
      "ณ": 1901,
      "ด": 1902,
      "ต": 1903,
      "ถ": 1904,
      "ท": 1905,
      "ธ": 1906,
      "น": 1907,
      "บ": 1908,
      "ป": 1909,
      "ผ": 1910,
      "พ": 1911,
      "ฟ": 1912,
      "ภ": 1913,
      "ม": 1914,
      "ย": 1915,
      "ร": 1916,
      "ฤ": 1917,
      "ล": 1918,
      "ว": 1919,
      "ศ": 1920,
      "ษ": 1921,
      "ส": 1922,
      "ห": 1923,
      "ฬ": 1924,
      "อ": 1925,
      "ฮ": 1926,
      "ะ": 1927,
      "ั": 1928,
      "า": 1929,
      "ำ": 1930,
      "ิ": 1931,
      "ี": 1932,
      "ึ": 1933,
      "ื": 1934,
      "ุ": 1935,
      "ู": 1936,
      "ฺ": 1937,
      "฿": 1938,
      "เ": 1939,
      "แ": 1940,
      "โ": 1941,
      "ใ": 1942,
      "ไ": 1943,
      "็": 1944,
      "่": 1945,
      "้": 1946,
      "์": 1947,
      "๐": 1948,
      "๑": 1949,
      "๒": 1950,
      "๕": 1951,
      "๙": 1952,
      "ກ": 1953,
      "ຂ": 1954,
      "ຄ": 1955,
      "ຆ": 1956,
      "ງ": 1957,
      "ຈ": 1958,
      "ຊ": 1959,
      "຋": 1960,
      "ຌ": 1961,
      "ຍ": 1962,
      "ດ": 1963,
      "ຕ": 1964,
      "ຖ": 1965,
      "ທ": 1966,
      "ຘ": 1967,
      "ນ": 1968,
      "ບ": 1969,
      "ປ": 1970,
      "ຜ": 1971,
      "ຝ": 1972,
      "ພ": 1973,
      "ຟ": 1974,
      "ມ": 1975,
      "ຢ": 1976,
      "ຣ": 1977,
      "ລ": 1978,
      "ວ": 1979,
      "ຨ": 1980,
      "ສ": 1981,
      "ຫ": 1982,
      "ອ": 1983,
      "ຮ": 1984,
      "ຯ": 1985,
      "ະ": 1986,
      "ັ": 1987,
      "າ": 1988,
      "ຳ": 1989,
      "ິ": 1990,
      "ີ": 1991,
      "ຶ": 1992,
      "ື": 1993,
      "ຸ": 1994,
      "ູ": 1995,
      "ົ": 1996,
      "ຼ": 1997,
      "ຽ": 1998,
      "ເ": 1999,
      "ແ": 2000,
      "ໂ": 2001,
      "ໃ": 2002,
      "ໄ": 2003,
      "ໆ": 2004,
      "່": 2005,
      "້": 2006,
      "໌": 2007,
      "ໍ": 2008,
      "ໜ": 2009,
      "ྲྀ": 2010,
      "က": 2011,
      "ခ": 2012,
      "ဂ": 2013,
      "င": 2014,
      "စ": 2015,
      "ဆ": 2016,
      "ဉ": 2017,
      "ည": 2018,
      "ဌ": 2019,
      "ဍ": 2020,
      "ဏ": 2021,
      "တ": 2022,
      "ထ": 2023,
      "န": 2024,
      "ပ": 2025,
      "ဖ": 2026,
      "ဘ": 2027,
      "မ": 2028,
      "ယ": 2029,
      "ရ": 2030,
      "လ": 2031,
      "ဝ": 2032,
      "သ": 2033,
      "ဟ": 2034,
      "အ": 2035,
      "ဤ": 2036,
      "ါ": 2037,
      "ာ": 2038,
      "ိ": 2039,
      "ီ": 2040,
      "ု": 2041,
      "ူ": 2042,
      "ေ": 2043,
      "ဲ": 2044,
      "ံ": 2045,
      "့": 2046,
      "း": 2047,
      "္": 2048,
      "်": 2049,
      "ျ": 2050,
      "ြ": 2051,
      "ွ": 2052,
      "ှ": 2053,
      "၀": 2054,
      "၁": 2055,
      "၂": 2056,
      "၃": 2057,
      "၄": 2058,
      "၅": 2059,
      "၆": 2060,
      "၇": 2061,
      "၈": 2062,
      "၊": 2063,
      "။": 2064,
      "၍": 2065,
      "၏": 2066,
      "ა": 2067,
      "ბ": 2068,
      "გ": 2069,
      "დ": 2070,
      "ე": 2071,
      "ვ": 2072,
      "ზ": 2073,
      "თ": 2074,
      "ი": 2075,
      "კ": 2076,
      "ლ": 2077,
      "მ": 2078,
      "ნ": 2079,
      "ო": 2080,
      "პ": 2081,
      "ჟ": 2082,
      "რ": 2083,
      "ს": 2084,
      "ტ": 2085,
      "უ": 2086,
      "ფ": 2087,
      "ქ": 2088,
      "ღ": 2089,
      "ყ": 2090,
      "შ": 2091,
      "ჩ": 2092,
      "ც": 2093,
      "ძ": 2094,
      "წ": 2095,
      "ჭ": 2096,
      "ხ": 2097,
      "ჯ": 2098,
      "ჰ": 2099,
      "ჱ": 2100,
      "ჲ": 2101,
      "ჳ": 2102,
      "ჴ": 2103,
      "ჵ": 2104,
      "ჶ": 2105,
      "ჷ": 2106,
      "ჸ": 2107,
      "ჹ": 2108,
      "ჺ": 2109,
      "჻": 2110,
      "ჼ": 2111,
      "ር": 2112,
      "ት": 2113,
      "ኛ": 2114,
      "ግ": 2115,
      "ᛉ": 2116,
      "ᛋ": 2117,
      "ᛒ": 2118,
      "ᛚ": 2119,
      "ᛞ": 2120,
      "ក": 2121,
      "ខ": 2122,
      "គ": 2123,
      "ឃ": 2124,
      "ង": 2125,
      "ច": 2126,
      "ឆ": 2127,
      "ជ": 2128,
      "ញ": 2129,
      "ដ": 2130,
      "ឋ": 2131,
      "ណ": 2132,
      "ត": 2133,
      "ថ": 2134,
      "ទ": 2135,
      "ធ": 2136,
      "ន": 2137,
      "ប": 2138,
      "ផ": 2139,
      "ព": 2140,
      "ភ": 2141,
      "ម": 2142,
      "យ": 2143,
      "រ": 2144,
      "ល": 2145,
      "វ": 2146,
      "ស": 2147,
      "ហ": 2148,
      "ឡ": 2149,
      "អ": 2150,
      "ឯ": 2151,
      "ា": 2152,
      "ិ": 2153,
      "ី": 2154,
      "ឹ": 2155,
      "ុ": 2156,
      "ូ": 2157,
      "ួ": 2158,
      "ើ": 2159,
      "ៀ": 2160,
      "េ": 2161,
      "ែ": 2162,
      "ៃ": 2163,
      "ោ": 2164,
      "ំ": 2165,
      "ះ": 2166,
      "ៈ": 2167,
      "៉": 2168,
      "៊": 2169,
      "់": 2170,
      "៍": 2171,
      "៏": 2172,
      "័": 2173,
      "្": 2174,
      "។": 2175,
      "ᴂ": 2176,
      "ᴈ": 2177,
      "ᴉ": 2178,
      "ᴔ": 2179,
      "ᴖ": 2180,
      "ᴗ": 2181,
      "ᴝ": 2182,
      "ᴞ": 2183,
      "ᴟ": 2184,
      "ᴬ": 2185,
      "ᴭ": 2186,
      "ᴮ": 2187,
      "ᴰ": 2188,
      "ᴱ": 2189,
      "ᴲ": 2190,
      "ᴳ": 2191,
      "ᴴ": 2192,
      "ᴵ": 2193,
      "ᴶ": 2194,
      "ᴷ": 2195,
      "ᴸ": 2196,
      "ᴹ": 2197,
      "ᴺ": 2198,
      "ᴻ": 2199,
      "ᴼ": 2200,
      "ᴾ": 2201,
      "ᴿ": 2202,
      "ᵀ": 2203,
      "ᵁ": 2204,
      "ᵂ": 2205,
      "ᵃ": 2206,
      "ᵄ": 2207,
      "ᵅ": 2208,
      "ᵆ": 2209,
      "ᵇ": 2210,
      "ᵈ": 2211,
      "ᵉ": 2212,
      "ᵊ": 2213,
      "ᵋ": 2214,
      "ᵌ": 2215,
      "ᵍ": 2216,
      "ᵎ": 2217,
      "ᵏ": 2218,
      "ᵐ": 2219,
      "ᵑ": 2220,
      "ᵒ": 2221,
      "ᵓ": 2222,
      "ᵔ": 2223,
      "ᵕ": 2224,
      "ᵖ": 2225,
      "ᵗ": 2226,
      "ᵘ": 2227,
      "ᵙ": 2228,
      "ᵚ": 2229,
      "ᵛ": 2230,
      "ᵢ": 2231,
      "ᵣ": 2232,
      "ᵤ": 2233,
      "ᵥ": 2234,
      "ᵷ": 2235,
      "ᵸ": 2236,
      "ᵻ": 2237,
      "ᶅ": 2238,
      "ᶛ": 2239,
      "ᶜ": 2240,
      "ᶝ": 2241,
      "ᶞ": 2242,
      "ᶟ": 2243,
      "ᶠ": 2244,
      "ᶡ": 2245,
      "ᶢ": 2246,
      "ᶣ": 2247,
      "ᶤ": 2248,
      "ᶥ": 2249,
      "ᶦ": 2250,
      "ᶧ": 2251,
      "ᶨ": 2252,
      "ᶩ": 2253,
      "ᶪ": 2254,
      "ᶫ": 2255,
      "ᶬ": 2256,
      "ᶭ": 2257,
      "ᶮ": 2258,
      "ᶯ": 2259,
      "ᶰ": 2260,
      "ᶱ": 2261,
      "ᶲ": 2262,
      "ᶳ": 2263,
      "ᶴ": 2264,
      "ᶵ": 2265,
      "ᶶ": 2266,
      "ᶷ": 2267,
      "ᶹ": 2268,
      "ᶺ": 2269,
      "ᶻ": 2270,
      "ᶼ": 2271,
      "ᶽ": 2272,
      "ᶾ": 2273,
      "ᶿ": 2274,
      "Ḁ": 2275,
      "ḁ": 2276,
      "Ḃ": 2277,
      "ḃ": 2278,
      "Ḅ": 2279,
      "ḅ": 2280,
      "Ḇ": 2281,
      "ḇ": 2282,
      "Ḉ": 2283,
      "ḉ": 2284,
      "Ḋ": 2285,
      "ḋ": 2286,
      "Ḍ": 2287,
      "ḍ": 2288,
      "Ḏ": 2289,
      "ḏ": 2290,
      "Ḑ": 2291,
      "ḑ": 2292,
      "Ḓ": 2293,
      "ḓ": 2294,
      "Ḙ": 2295,
      "ḙ": 2296,
      "Ḛ": 2297,
      "ḛ": 2298,
      "Ḝ": 2299,
      "ḝ": 2300,
      "Ḟ": 2301,
      "ḟ": 2302,
      "Ḡ": 2303,
      "ḡ": 2304,
      "Ḣ": 2305,
      "ḣ": 2306,
      "Ḥ": 2307,
      "ḥ": 2308,
      "Ḧ": 2309,
      "ḧ": 2310,
      "Ḩ": 2311,
      "ḩ": 2312,
      "Ḫ": 2313,
      "ḫ": 2314,
      "Ḭ": 2315,
      "ḭ": 2316,
      "Ḱ": 2317,
      "ḱ": 2318,
      "Ḳ": 2319,
      "ḳ": 2320,
      "Ḵ": 2321,
      "ḵ": 2322,
      "Ḷ": 2323,
      "ḷ": 2324,
      "Ḹ": 2325,
      "ḹ": 2326,
      "Ḻ": 2327,
      "ḻ": 2328,
      "Ḽ": 2329,
      "ḽ": 2330,
      "Ḿ": 2331,
      "ḿ": 2332,
      "Ṁ": 2333,
      "ṁ": 2334,
      "Ṃ": 2335,
      "ṃ": 2336,
      "Ṅ": 2337,
      "ṅ": 2338,
      "Ṇ": 2339,
      "ṇ": 2340,
      "Ṉ": 2341,
      "ṉ": 2342,
      "Ṋ": 2343,
      "ṋ": 2344,
      "Ṍ": 2345,
      "ṍ": 2346,
      "Ṕ": 2347,
      "ṕ": 2348,
      "Ṗ": 2349,
      "ṗ": 2350,
      "Ṙ": 2351,
      "ṙ": 2352,
      "Ṛ": 2353,
      "ṛ": 2354,
      "Ṝ": 2355,
      "ṝ": 2356,
      "Ṟ": 2357,
      "ṟ": 2358,
      "Ṡ": 2359,
      "ṡ": 2360,
      "Ṣ": 2361,
      "ṣ": 2362,
      "Ṩ": 2363,
      "ṩ": 2364,
      "Ṫ": 2365,
      "ṫ": 2366,
      "Ṭ": 2367,
      "ṭ": 2368,
      "Ṯ": 2369,
      "ṯ": 2370,
      "Ṱ": 2371,
      "ṱ": 2372,
      "Ṳ": 2373,
      "ṳ": 2374,
      "Ṵ": 2375,
      "ṵ": 2376,
      "Ṷ": 2377,
      "ṷ": 2378,
      "Ṹ": 2379,
      "ṹ": 2380,
      "Ṽ": 2381,
      "ṽ": 2382,
      "Ṿ": 2383,
      "ṿ": 2384,
      "Ẁ": 2385,
      "ẁ": 2386,
      "Ẃ": 2387,
      "ẃ": 2388,
      "Ẅ": 2389,
      "ẅ": 2390,
      "Ẇ": 2391,
      "ẇ": 2392,
      "Ẉ": 2393,
      "ẉ": 2394,
      "Ẋ": 2395,
      "ẋ": 2396,
      "Ẍ": 2397,
      "ẍ": 2398,
      "Ẏ": 2399,
      "ẏ": 2400,
      "Ẑ": 2401,
      "ẑ": 2402,
      "Ẓ": 2403,
      "ẓ": 2404,
      "Ẕ": 2405,
      "ẕ": 2406,
      "ẖ": 2407,
      "ẗ": 2408,
      "ẘ": 2409,
      "ẙ": 2410,
      "ẛ": 2411,
      "ẟ": 2412,
      "Ạ": 2413,
      "ạ": 2414,
      "Ả": 2415,
      "ả": 2416,
      "ấ": 2417,
      "ầ": 2418,
      "ẩ": 2419,
      "ẫ": 2420,
      "Ậ": 2421,
      "ậ": 2422,
      "ắ": 2423,
      "Ằ": 2424,
      "ằ": 2425,
      "ẳ": 2426,
      "ẵ": 2427,
      "Ặ": 2428,
      "ặ": 2429,
      "Ẹ": 2430,
      "ẹ": 2431,
      "ẻ": 2432,
      "Ẽ": 2433,
      "ẽ": 2434,
      "ế": 2435,
      "ề": 2436,
      "ể": 2437,
      "ễ": 2438,
      "Ệ": 2439,
      "ệ": 2440,
      "ỉ": 2441,
      "Ị": 2442,
      "ị": 2443,
      "Ọ": 2444,
      "ọ": 2445,
      "ỏ": 2446,
      "ố": 2447,
      "ồ": 2448,
      "ổ": 2449,
      "ỗ": 2450,
      "Ộ": 2451,
      "ộ": 2452,
      "Ớ": 2453,
      "ớ": 2454,
      "Ờ": 2455,
      "ờ": 2456,
      "ở": 2457,
      "Ỡ": 2458,
      "ỡ": 2459,
      "Ợ": 2460,
      "ợ": 2461,
      "Ụ": 2462,
      "ụ": 2463,
      "ủ": 2464,
      "Ứ": 2465,
      "ứ": 2466,
      "Ừ": 2467,
      "ừ": 2468,
      "ử": 2469,
      "Ữ": 2470,
      "ữ": 2471,
      "Ự": 2472,
      "ự": 2473,
      "Ỳ": 2474,
      "ỳ": 2475,
      "Ỵ": 2476,
      "ỵ": 2477,
      "Ỹ": 2478,
      "ỹ": 2479,
      "ἀ": 2480,
      "ἁ": 2481,
      "ἂ": 2482,
      "ἃ": 2483,
      "ἄ": 2484,
      "ἅ": 2485,
      "ἆ": 2486,
      "ἇ": 2487,
      "Ἀ": 2488,
      "Ἁ": 2489,
      "Ἂ": 2490,
      "Ἃ": 2491,
      "Ἄ": 2492,
      "Ἅ": 2493,
      "Ἆ": 2494,
      "Ἇ": 2495,
      "ἐ": 2496,
      "ἑ": 2497,
      "ἒ": 2498,
      "ἓ": 2499,
      "ἔ": 2500,
      "ἕ": 2501,
      "Ἐ": 2502,
      "Ἑ": 2503,
      "Ἒ": 2504,
      "Ἓ": 2505,
      "Ἔ": 2506,
      "Ἕ": 2507,
      "ἠ": 2508,
      "ἡ": 2509,
      "ἢ": 2510,
      "ἣ": 2511,
      "ἤ": 2512,
      "ἥ": 2513,
      "ἦ": 2514,
      "ἧ": 2515,
      "Ἠ": 2516,
      "Ἡ": 2517,
      "Ἢ": 2518,
      "Ἣ": 2519,
      "Ἤ": 2520,
      "Ἥ": 2521,
      "Ἦ": 2522,
      "Ἧ": 2523,
      "ἰ": 2524,
      "ἱ": 2525,
      "ἲ": 2526,
      "ἳ": 2527,
      "ἴ": 2528,
      "ἵ": 2529,
      "ἶ": 2530,
      "ἷ": 2531,
      "Ἰ": 2532,
      "Ἱ": 2533,
      "Ἲ": 2534,
      "Ἳ": 2535,
      "Ἴ": 2536,
      "Ἵ": 2537,
      "Ἶ": 2538,
      "Ἷ": 2539,
      "ὀ": 2540,
      "ὁ": 2541,
      "ὂ": 2542,
      "ὃ": 2543,
      "ὄ": 2544,
      "ὅ": 2545,
      "Ὀ": 2546,
      "Ὁ": 2547,
      "Ὂ": 2548,
      "Ὃ": 2549,
      "Ὄ": 2550,
      "Ὅ": 2551,
      "ὐ": 2552,
      "ὑ": 2553,
      "ὒ": 2554,
      "ὓ": 2555,
      "ὔ": 2556,
      "ὕ": 2557,
      "ὖ": 2558,
      "ὗ": 2559,
      "Ὑ": 2560,
      "Ὓ": 2561,
      "Ὕ": 2562,
      "Ὗ": 2563,
      "ὠ": 2564,
      "ὡ": 2565,
      "ὢ": 2566,
      "ὣ": 2567,
      "ὤ": 2568,
      "ὥ": 2569,
      "ὦ": 2570,
      "ὧ": 2571,
      "Ὠ": 2572,
      "Ὡ": 2573,
      "Ὢ": 2574,
      "Ὣ": 2575,
      "Ὤ": 2576,
      "Ὥ": 2577,
      "Ὦ": 2578,
      "Ὧ": 2579,
      "ὰ": 2580,
      "ά": 2581,
      "ὲ": 2582,
      "έ": 2583,
      "ὴ": 2584,
      "ή": 2585,
      "ὶ": 2586,
      "ί": 2587,
      "ὸ": 2588,
      "ό": 2589,
      "ὺ": 2590,
      "ύ": 2591,
      "ὼ": 2592,
      "ώ": 2593,
      "ᾀ": 2594,
      "ᾁ": 2595,
      "ᾂ": 2596,
      "ᾃ": 2597,
      "ᾄ": 2598,
      "ᾅ": 2599,
      "ᾆ": 2600,
      "ᾇ": 2601,
      "ᾈ": 2602,
      "ᾉ": 2603,
      "ᾊ": 2604,
      "ᾋ": 2605,
      "ᾌ": 2606,
      "ᾍ": 2607,
      "ᾎ": 2608,
      "ᾏ": 2609,
      "ᾐ": 2610,
      "ᾑ": 2611,
      "ᾒ": 2612,
      "ᾓ": 2613,
      "ᾔ": 2614,
      "ᾕ": 2615,
      "ᾖ": 2616,
      "ᾗ": 2617,
      "ᾘ": 2618,
      "ᾙ": 2619,
      "ᾚ": 2620,
      "ᾛ": 2621,
      "ᾜ": 2622,
      "ᾝ": 2623,
      "ᾞ": 2624,
      "ᾟ": 2625,
      "ᾠ": 2626,
      "ᾡ": 2627,
      "ᾢ": 2628,
      "ᾣ": 2629,
      "ᾤ": 2630,
      "ᾥ": 2631,
      "ᾦ": 2632,
      "ᾧ": 2633,
      "ᾨ": 2634,
      "ᾩ": 2635,
      "ᾪ": 2636,
      "ᾫ": 2637,
      "ᾬ": 2638,
      "ᾭ": 2639,
      "ᾮ": 2640,
      "ᾯ": 2641,
      "ᾰ": 2642,
      "ᾱ": 2643,
      "ᾲ": 2644,
      "ᾳ": 2645,
      "ᾴ": 2646,
      "ᾶ": 2647,
      "ᾷ": 2648,
      "Ᾰ": 2649,
      "Ᾱ": 2650,
      "Ὰ": 2651,
      "Ά": 2652,
      "ᾼ": 2653,
      "᾽": 2654,
      "ι": 2655,
      "᾿": 2656,
      "῀": 2657,
      "῁": 2658,
      "ῂ": 2659,
      "ῃ": 2660,
      "ῄ": 2661,
      "ῆ": 2662,
      "ῇ": 2663,
      "Ὲ": 2664,
      "Έ": 2665,
      "Ὴ": 2666,
      "Ή": 2667,
      "ῌ": 2668,
      "῍": 2669,
      "῎": 2670,
      "῏": 2671,
      "ῐ": 2672,
      "ῑ": 2673,
      "ῒ": 2674,
      "ΐ": 2675,
      "ῖ": 2676,
      "ῗ": 2677,
      "Ῐ": 2678,
      "Ῑ": 2679,
      "Ὶ": 2680,
      "Ί": 2681,
      "῝": 2682,
      "῞": 2683,
      "῟": 2684,
      "ῠ": 2685,
      "ῡ": 2686,
      "ῢ": 2687,
      "ΰ": 2688,
      "ῤ": 2689,
      "ῥ": 2690,
      "ῦ": 2691,
      "ῧ": 2692,
      "Ῠ": 2693,
      "Ῡ": 2694,
      "Ὺ": 2695,
      "Ύ": 2696,
      "Ῥ": 2697,
      "῭": 2698,
      "΅": 2699,
      "`": 2700,
      "ῲ": 2701,
      "ῳ": 2702,
      "ῴ": 2703,
      "ῶ": 2704,
      "ῷ": 2705,
      "Ὸ": 2706,
      "Ό": 2707,
      "Ὼ": 2708,
      "Ώ": 2709,
      "ῼ": 2710,
      "´": 2711,
      "῾": 2712,
      "​": 2713,
      "‌": 2714,
      "‍": 2715,
      "‎": 2716,
      "‏": 2717,
      "‐": 2718,
      "‑": 2719,
      "‒": 2720,
      "–": 2721,
      "—": 2722,
      "―": 2723,
      "‖": 2724,
      "‗": 2725,
      "‘": 2726,
      "’": 2727,
      "‚": 2728,
      "‛": 2729,
      "“": 2730,
      "”": 2731,
      "„": 2732,
      "‟": 2733,
      "†": 2734,
      "‡": 2735,
      "•": 2736,
      "‣": 2737,
      "․": 2738,
      "…": 2739,
      "‪": 2740,
      "‫": 2741,
      "‬": 2742,
      "‰": 2743,
      "‱": 2744,
      "′": 2745,
      "″": 2746,
      "‴": 2747,
      "‵": 2748,
      "‶": 2749,
      "‷": 2750,
      "‸": 2751,
      "‹": 2752,
      "›": 2753,
      "※": 2754,
      "‼": 2755,
      "‽": 2756,
      "‾": 2757,
      "‿": 2758,
      "⁂": 2759,
      "⁃": 2760,
      "⁄": 2761,
      "⁅": 2762,
      "⁆": 2763,
      "⁇": 2764,
      "⁈": 2765,
      "⁉": 2766,
      "⁋": 2767,
      "⁎": 2768,
      "⁡": 2769,
      "⁢": 2770,
      "⁦": 2771,
      "⁰": 2772,
      "ⁱ": 2773,
      "⁴": 2774,
      "⁵": 2775,
      "⁶": 2776,
      "⁷": 2777,
      "⁸": 2778,
      "⁹": 2779,
      "⁺": 2780,
      "⁻": 2781,
      "⁼": 2782,
      "⁽": 2783,
      "⁾": 2784,
      "ⁿ": 2785,
      "₀": 2786,
      "₁": 2787,
      "₂": 2788,
      "₃": 2789,
      "₄": 2790,
      "₅": 2791,
      "₆": 2792,
      "₇": 2793,
      "₈": 2794,
      "₉": 2795,
      "₊": 2796,
      "₋": 2797,
      "₌": 2798,
      "₍": 2799,
      "₎": 2800,
      "ₐ": 2801,
      "ₑ": 2802,
      "ₒ": 2803,
      "ₓ": 2804,
      "ₔ": 2805,
      "ₕ": 2806,
      "ₖ": 2807,
      "ₗ": 2808,
      "ₘ": 2809,
      "ₙ": 2810,
      "ₚ": 2811,
      "ₛ": 2812,
      "ₜ": 2813,
      "₠": 2814,
      "₡": 2815,
      "₢": 2816,
      "₣": 2817,
      "₤": 2818,
      "₥": 2819,
      "₦": 2820,
      "₧": 2821,
      "₨": 2822,
      "₩": 2823,
      "₪": 2824,
      "₫": 2825,
      "€": 2826,
      "₭": 2827,
      "₮": 2828,
      "₯": 2829,
      "₰": 2830,
      "₱": 2831,
      "₲": 2832,
      "₳": 2833,
      "₴": 2834,
      "₵": 2835,
      "₸": 2836,
      "₹": 2837,
      "₺": 2838,
      "₼": 2839,
      "₽": 2840,
      "⃗": 2841,
      "⃝": 2842,
      "⃣": 2843,
      "ℂ": 2844,
      "℃": 2845,
      "℅": 2846,
      "ℋ": 2847,
      "ℍ": 2848,
      "ℎ": 2849,
      "ℏ": 2850,
      "ℐ": 2851,
      "ℒ": 2852,
      "ℓ": 2853,
      "ℕ": 2854,
      "№": 2855,
      "℗": 2856,
      "℘": 2857,
      "ℙ": 2858,
      "ℚ": 2859,
      "ℜ": 2860,
      "ℝ": 2861,
      "℠": 2862,
      "™": 2863,
      "ℤ": 2864,
      "Ω": 2865,
      "K": 2866,
      "Å": 2867,
      "℮": 2868,
      "ℱ": 2869,
      "ℵ": 2870,
      "ⅈ": 2871,
      "⅐": 2872,
      "⅑": 2873,
      "⅓": 2874,
      "⅔": 2875,
      "⅕": 2876,
      "⅖": 2877,
      "⅗": 2878,
      "⅘": 2879,
      "⅙": 2880,
      "⅚": 2881,
      "⅛": 2882,
      "⅜": 2883,
      "⅝": 2884,
      "⅞": 2885,
      "⅟": 2886,
      "Ⅰ": 2887,
      "Ⅱ": 2888,
      "Ⅲ": 2889,
      "Ⅳ": 2890,
      "Ⅴ": 2891,
      "Ⅵ": 2892,
      "Ⅶ": 2893,
      "Ⅷ": 2894,
      "Ⅸ": 2895,
      "Ⅹ": 2896,
      "Ⅺ": 2897,
      "Ⅻ": 2898,
      "↉": 2899,
      "←": 2900,
      "↑": 2901,
      "→": 2902,
      "↓": 2903,
      "↔": 2904,
      "↕": 2905,
      "↖": 2906,
      "↗": 2907,
      "↘": 2908,
      "↙": 2909,
      "↚": 2910,
      "↛": 2911,
      "↜": 2912,
      "↝": 2913,
      "↞": 2914,
      "↟": 2915,
      "↠": 2916,
      "↡": 2917,
      "↢": 2918,
      "↣": 2919,
      "↤": 2920,
      "↥": 2921,
      "↦": 2922,
      "↧": 2923,
      "↨": 2924,
      "↩": 2925,
      "↪": 2926,
      "↫": 2927,
      "↬": 2928,
      "↭": 2929,
      "↮": 2930,
      "↯": 2931,
      "↰": 2932,
      "↱": 2933,
      "↲": 2934,
      "↳": 2935,
      "↴": 2936,
      "↵": 2937,
      "↶": 2938,
      "↷": 2939,
      "↸": 2940,
      "↹": 2941,
      "↺": 2942,
      "↻": 2943,
      "↼": 2944,
      "↽": 2945,
      "↾": 2946,
      "↿": 2947,
      "⇀": 2948,
      "⇁": 2949,
      "⇂": 2950,
      "⇃": 2951,
      "⇄": 2952,
      "⇅": 2953,
      "⇆": 2954,
      "⇇": 2955,
      "⇈": 2956,
      "⇉": 2957,
      "⇊": 2958,
      "⇋": 2959,
      "⇌": 2960,
      "⇍": 2961,
      "⇎": 2962,
      "⇏": 2963,
      "⇐": 2964,
      "⇑": 2965,
      "⇒": 2966,
      "⇓": 2967,
      "⇔": 2968,
      "⇕": 2969,
      "⇖": 2970,
      "⇗": 2971,
      "⇘": 2972,
      "⇙": 2973,
      "⇚": 2974,
      "⇛": 2975,
      "⇜": 2976,
      "⇝": 2977,
      "⇞": 2978,
      "⇟": 2979,
      "⇠": 2980,
      "⇡": 2981,
      "⇢": 2982,
      "⇣": 2983,
      "⇤": 2984,
      "⇥": 2985,
      "⇦": 2986,
      "⇧": 2987,
      "⇨": 2988,
      "⇩": 2989,
      "⇪": 2990,
      "⇫": 2991,
      "⇬": 2992,
      "⇭": 2993,
      "⇮": 2994,
      "⇯": 2995,
      "⇰": 2996,
      "⇱": 2997,
      "⇲": 2998,
      "⇳": 2999,
      "⇴": 3000,
      "⇵": 3001,
      "⇶": 3002,
      "⇷": 3003,
      "⇸": 3004,
      "⇹": 3005,
      "⇺": 3006,
      "⇻": 3007,
      "⇼": 3008,
      "⇽": 3009,
      "⇾": 3010,
      "⇿": 3011,
      "∀": 3012,
      "∁": 3013,
      "∂": 3014,
      "∃": 3015,
      "∄": 3016,
      "∅": 3017,
      "∆": 3018,
      "∇": 3019,
      "∈": 3020,
      "∉": 3021,
      "∊": 3022,
      "∋": 3023,
      "∌": 3024,
      "∍": 3025,
      "∎": 3026,
      "∏": 3027,
      "∐": 3028,
      "∑": 3029,
      "−": 3030,
      "∓": 3031,
      "∕": 3032,
      "∖": 3033,
      "∗": 3034,
      "∘": 3035,
      "∙": 3036,
      "√": 3037,
      "∛": 3038,
      "∜": 3039,
      "∝": 3040,
      "∞": 3041,
      "∟": 3042,
      "∠": 3043,
      "∣": 3044,
      "∤": 3045,
      "∥": 3046,
      "∧": 3047,
      "∨": 3048,
      "∩": 3049,
      "∪": 3050,
      "∫": 3051,
      "∬": 3052,
      "∭": 3053,
      "∮": 3054,
      "∴": 3055,
      "∵": 3056,
      "∶": 3057,
      "∷": 3058,
      "∸": 3059,
      "∹": 3060,
      "∺": 3061,
      "∻": 3062,
      "∼": 3063,
      "∽": 3064,
      "≀": 3065,
      "≁": 3066,
      "≂": 3067,
      "≃": 3068,
      "≄": 3069,
      "≅": 3070,
      "≆": 3071,
      "≇": 3072,
      "≈": 3073,
      "≉": 3074,
      "≊": 3075,
      "≋": 3076,
      "≌": 3077,
      "≍": 3078,
      "≎": 3079,
      "≏": 3080,
      "≐": 3081,
      "≑": 3082,
      "≒": 3083,
      "≓": 3084,
      "≔": 3085,
      "≕": 3086,
      "≖": 3087,
      "≗": 3088,
      "≘": 3089,
      "≙": 3090,
      "≚": 3091,
      "≛": 3092,
      "≜": 3093,
      "≝": 3094,
      "≞": 3095,
      "≟": 3096,
      "≠": 3097,
      "≡": 3098,
      "≢": 3099,
      "≣": 3100,
      "≤": 3101,
      "≥": 3102,
      "≦": 3103,
      "≧": 3104,
      "≨": 3105,
      "≩": 3106,
      "≪": 3107,
      "≫": 3108,
      "≬": 3109,
      "≭": 3110,
      "≮": 3111,
      "≯": 3112,
      "≰": 3113,
      "≱": 3114,
      "≲": 3115,
      "≳": 3116,
      "≴": 3117,
      "≵": 3118,
      "≶": 3119,
      "≷": 3120,
      "≸": 3121,
      "≹": 3122,
      "≺": 3123,
      "≻": 3124,
      "≼": 3125,
      "≽": 3126,
      "≾": 3127,
      "≿": 3128,
      "⊀": 3129,
      "⊁": 3130,
      "⊂": 3131,
      "⊃": 3132,
      "⊄": 3133,
      "⊅": 3134,
      "⊆": 3135,
      "⊇": 3136,
      "⊈": 3137,
      "⊉": 3138,
      "⊊": 3139,
      "⊋": 3140,
      "⊍": 3141,
      "⊎": 3142,
      "⊏": 3143,
      "⊐": 3144,
      "⊑": 3145,
      "⊒": 3146,
      "⊓": 3147,
      "⊔": 3148,
      "⊕": 3149,
      "⊖": 3150,
      "⊗": 3151,
      "⊘": 3152,
      "⊙": 3153,
      "⊚": 3154,
      "⊛": 3155,
      "⊜": 3156,
      "⊝": 3157,
      "⊞": 3158,
      "⊟": 3159,
      "⊠": 3160,
      "⊡": 3161,
      "⊢": 3162,
      "⊣": 3163,
      "⊤": 3164,
      "⊥": 3165,
      "⊨": 3166,
      "⊲": 3167,
      "⊳": 3168,
      "⊴": 3169,
      "⊵": 3170,
      "⊸": 3171,
      "⊻": 3172,
      "⊿": 3173,
      "⋂": 3174,
      "⋃": 3175,
      "⋄": 3176,
      "⋅": 3177,
      "⋆": 3178,
      "⋉": 3179,
      "⋊": 3180,
      "⋍": 3181,
      "⋎": 3182,
      "⋏": 3183,
      "⋐": 3184,
      "⋑": 3185,
      "⋚": 3186,
      "⋛": 3187,
      "⋜": 3188,
      "⋝": 3189,
      "⋞": 3190,
      "⋟": 3191,
      "⋠": 3192,
      "⋡": 3193,
      "⋢": 3194,
      "⋣": 3195,
      "⋤": 3196,
      "⋥": 3197,
      "⋦": 3198,
      "⋧": 3199,
      "⋨": 3200,
      "⋩": 3201,
      "⋮": 3202,
      "⋯": 3203,
      "⌀": 3204,
      "⌁": 3205,
      "⌂": 3206,
      "⌃": 3207,
      "⌄": 3208,
      "⌅": 3209,
      "⌆": 3210,
      "⌈": 3211,
      "⌉": 3212,
      "⌊": 3213,
      "⌋": 3214,
      "⌌": 3215,
      "⌍": 3216,
      "⌎": 3217,
      "⌏": 3218,
      "⌐": 3219,
      "⌑": 3220,
      "⌒": 3221,
      "⌓": 3222,
      "⌔": 3223,
      "⌕": 3224,
      "⌘": 3225,
      "⌙": 3226,
      "⌜": 3227,
      "⌝": 3228,
      "⌞": 3229,
      "⌟": 3230,
      "⌠": 3231,
      "⌡": 3232,
      "⌥": 3233,
      "⌦": 3234,
      "⌧": 3235,
      "⌨": 3236,
      "〈": 3237,
      "〉": 3238,
      "⌫": 3239,
      "⌵": 3240,
      "⌶": 3241,
      "⌷": 3242,
      "⌸": 3243,
      "⌹": 3244,
      "⌺": 3245,
      "⌻": 3246,
      "⌼": 3247,
      "⌽": 3248,
      "⌾": 3249,
      "⌿": 3250,
      "⍀": 3251,
      "⍁": 3252,
      "⍂": 3253,
      "⍃": 3254,
      "⍄": 3255,
      "⍅": 3256,
      "⍆": 3257,
      "⍇": 3258,
      "⍈": 3259,
      "⍉": 3260,
      "⍊": 3261,
      "⍋": 3262,
      "⍌": 3263,
      "⍍": 3264,
      "⍎": 3265,
      "⍏": 3266,
      "⍐": 3267,
      "⍑": 3268,
      "⍒": 3269,
      "⍓": 3270,
      "⍔": 3271,
      "⍕": 3272,
      "⍖": 3273,
      "⍗": 3274,
      "⍘": 3275,
      "⍙": 3276,
      "⍚": 3277,
      "⍛": 3278,
      "⍜": 3279,
      "⍝": 3280,
      "⍞": 3281,
      "⍟": 3282,
      "⍠": 3283,
      "⍡": 3284,
      "⍢": 3285,
      "⍣": 3286,
      "⍤": 3287,
      "⍥": 3288,
      "⍦": 3289,
      "⍧": 3290,
      "⍨": 3291,
      "⍩": 3292,
      "⍪": 3293,
      "⍫": 3294,
      "⍬": 3295,
      "⍭": 3296,
      "⍮": 3297,
      "⍯": 3298,
      "⍰": 3299,
      "⍱": 3300,
      "⍲": 3301,
      "⍳": 3302,
      "⍴": 3303,
      "⍵": 3304,
      "⍶": 3305,
      "⍷": 3306,
      "⍸": 3307,
      "⍹": 3308,
      "⍺": 3309,
      "⍽": 3310,
      "⎀": 3311,
      "⎁": 3312,
      "⎂": 3313,
      "⎃": 3314,
      "⎈": 3315,
      "⎉": 3316,
      "⎊": 3317,
      "⎋": 3318,
      "⎕": 3319,
      "⎚": 3320,
      "⎛": 3321,
      "⎜": 3322,
      "⎝": 3323,
      "⎞": 3324,
      "⎟": 3325,
      "⎠": 3326,
      "⎡": 3327,
      "⎢": 3328,
      "⎣": 3329,
      "⎤": 3330,
      "⎥": 3331,
      "⎦": 3332,
      "⎧": 3333,
      "⎨": 3334,
      "⎩": 3335,
      "⎪": 3336,
      "⎫": 3337,
      "⎬": 3338,
      "⎭": 3339,
      "⎮": 3340,
      "⏎": 3341,
      "⏏": 3342,
      "⏪": 3343,
      "⏮": 3344,
      "⏰": 3345,
      "⏱": 3346,
      "⏲": 3347,
      "⏳": 3348,
      "␁": 3349,
      "␃": 3350,
      "␅": 3351,
      "␒": 3352,
      "␣": 3353,
      "①": 3354,
      "②": 3355,
      "③": 3356,
      "④": 3357,
      "⑤": 3358,
      "⑥": 3359,
      "⑦": 3360,
      "⑧": 3361,
      "⑨": 3362,
      "⑩": 3363,
      "⑳": 3364,
      "Ⓐ": 3365,
      "Ⓑ": 3366,
      "Ⓒ": 3367,
      "Ⓛ": 3368,
      "Ⓜ": 3369,
      "Ⓡ": 3370,
      "Ⓩ": 3371,
      "─": 3372,
      "━": 3373,
      "│": 3374,
      "┃": 3375,
      "┄": 3376,
      "┅": 3377,
      "┆": 3378,
      "┇": 3379,
      "┈": 3380,
      "┉": 3381,
      "┊": 3382,
      "┋": 3383,
      "┌": 3384,
      "┍": 3385,
      "┎": 3386,
      "┏": 3387,
      "┐": 3388,
      "┑": 3389,
      "┒": 3390,
      "┓": 3391,
      "└": 3392,
      "┕": 3393,
      "┖": 3394,
      "┗": 3395,
      "┘": 3396,
      "┙": 3397,
      "┚": 3398,
      "┛": 3399,
      "├": 3400,
      "┝": 3401,
      "┞": 3402,
      "┟": 3403,
      "┠": 3404,
      "┡": 3405,
      "┢": 3406,
      "┣": 3407,
      "┤": 3408,
      "┥": 3409,
      "┦": 3410,
      "┧": 3411,
      "┨": 3412,
      "┩": 3413,
      "┪": 3414,
      "┫": 3415,
      "┬": 3416,
      "┭": 3417,
      "┮": 3418,
      "┯": 3419,
      "┰": 3420,
      "┱": 3421,
      "┲": 3422,
      "┳": 3423,
      "┴": 3424,
      "┵": 3425,
      "┶": 3426,
      "┷": 3427,
      "┸": 3428,
      "┹": 3429,
      "┺": 3430,
      "┻": 3431,
      "┼": 3432,
      "┽": 3433,
      "┾": 3434,
      "┿": 3435,
      "╀": 3436,
      "╁": 3437,
      "╂": 3438,
      "╃": 3439,
      "╄": 3440,
      "╅": 3441,
      "╆": 3442,
      "╇": 3443,
      "╈": 3444,
      "╉": 3445,
      "╊": 3446,
      "╋": 3447,
      "╌": 3448,
      "╍": 3449,
      "╎": 3450,
      "╏": 3451,
      "═": 3452,
      "║": 3453,
      "╒": 3454,
      "╓": 3455,
      "╔": 3456,
      "╕": 3457,
      "╖": 3458,
      "╗": 3459,
      "╘": 3460,
      "╙": 3461,
      "╚": 3462,
      "╛": 3463,
      "╜": 3464,
      "╝": 3465,
      "╞": 3466,
      "╟": 3467,
      "╠": 3468,
      "╡": 3469,
      "╢": 3470,
      "╣": 3471,
      "╤": 3472,
      "╥": 3473,
      "╦": 3474,
      "╧": 3475,
      "╨": 3476,
      "╩": 3477,
      "╪": 3478,
      "╫": 3479,
      "╬": 3480,
      "╭": 3481,
      "╮": 3482,
      "╯": 3483,
      "╰": 3484,
      "╱": 3485,
      "╲": 3486,
      "╳": 3487,
      "╴": 3488,
      "╵": 3489,
      "╶": 3490,
      "╷": 3491,
      "╸": 3492,
      "╹": 3493,
      "╺": 3494,
      "╻": 3495,
      "╼": 3496,
      "╽": 3497,
      "╾": 3498,
      "╿": 3499,
      "▀": 3500,
      "▂": 3501,
      "▃": 3502,
      "▄": 3503,
      "▅": 3504,
      "▆": 3505,
      "▇": 3506,
      "█": 3507,
      "▉": 3508,
      "▊": 3509,
      "▋": 3510,
      "▌": 3511,
      "▍": 3512,
      "▎": 3513,
      "▏": 3514,
      "▐": 3515,
      "░": 3516,
      "▒": 3517,
      "▓": 3518,
      "▔": 3519,
      "▕": 3520,
      "▖": 3521,
      "▗": 3522,
      "▘": 3523,
      "▙": 3524,
      "▚": 3525,
      "▛": 3526,
      "▜": 3527,
      "▝": 3528,
      "▞": 3529,
      "▟": 3530,
      "■": 3531,
      "□": 3532,
      "▢": 3533,
      "▣": 3534,
      "▤": 3535,
      "▥": 3536,
      "▦": 3537,
      "▧": 3538,
      "▨": 3539,
      "▩": 3540,
      "▪": 3541,
      "▫": 3542,
      "▬": 3543,
      "▭": 3544,
      "▮": 3545,
      "▯": 3546,
      "▰": 3547,
      "▱": 3548,
      "▲": 3549,
      "△": 3550,
      "▴": 3551,
      "▵": 3552,
      "▶": 3553,
      "▷": 3554,
      "▸": 3555,
      "▹": 3556,
      "►": 3557,
      "▻": 3558,
      "▼": 3559,
      "▽": 3560,
      "▾": 3561,
      "▿": 3562,
      "◀": 3563,
      "◁": 3564,
      "◂": 3565,
      "◃": 3566,
      "◄": 3567,
      "◅": 3568,
      "◆": 3569,
      "◇": 3570,
      "◈": 3571,
      "◉": 3572,
      "◊": 3573,
      "○": 3574,
      "◌": 3575,
      "◍": 3576,
      "◎": 3577,
      "●": 3578,
      "◐": 3579,
      "◑": 3580,
      "◒": 3581,
      "◓": 3582,
      "◔": 3583,
      "◕": 3584,
      "◖": 3585,
      "◗": 3586,
      "◘": 3587,
      "◙": 3588,
      "◚": 3589,
      "◛": 3590,
      "◜": 3591,
      "◝": 3592,
      "◞": 3593,
      "◟": 3594,
      "◠": 3595,
      "◡": 3596,
      "◢": 3597,
      "◣": 3598,
      "◤": 3599,
      "◥": 3600,
      "◦": 3601,
      "◧": 3602,
      "◨": 3603,
      "◩": 3604,
      "◪": 3605,
      "◫": 3606,
      "◬": 3607,
      "◭": 3608,
      "◮": 3609,
      "◯": 3610,
      "◰": 3611,
      "◱": 3612,
      "◲": 3613,
      "◳": 3614,
      "◴": 3615,
      "◵": 3616,
      "◶": 3617,
      "◷": 3618,
      "◸": 3619,
      "◹": 3620,
      "◺": 3621,
      "◻": 3622,
      "◼": 3623,
      "◽": 3624,
      "◾": 3625,
      "◿": 3626,
      "☀": 3627,
      "☁": 3628,
      "☂": 3629,
      "☃": 3630,
      "☄": 3631,
      "★": 3632,
      "☆": 3633,
      "☇": 3634,
      "☈": 3635,
      "☉": 3636,
      "☊": 3637,
      "☋": 3638,
      "☌": 3639,
      "☍": 3640,
      "☎": 3641,
      "☏": 3642,
      "☐": 3643,
      "☑": 3644,
      "☒": 3645,
      "☓": 3646,
      "☔": 3647,
      "☕": 3648,
      "☖": 3649,
      "☗": 3650,
      "☘": 3651,
      "☙": 3652,
      "☚": 3653,
      "☛": 3654,
      "☜": 3655,
      "☝": 3656,
      "☞": 3657,
      "☟": 3658,
      "☠": 3659,
      "☡": 3660,
      "☢": 3661,
      "☣": 3662,
      "☤": 3663,
      "☥": 3664,
      "☦": 3665,
      "☧": 3666,
      "☨": 3667,
      "☩": 3668,
      "☪": 3669,
      "☫": 3670,
      "☬": 3671,
      "☭": 3672,
      "☮": 3673,
      "☯": 3674,
      "☰": 3675,
      "☸": 3676,
      "☹": 3677,
      "☺": 3678,
      "☻": 3679,
      "☼": 3680,
      "☽": 3681,
      "☾": 3682,
      "☿": 3683,
      "♀": 3684,
      "♁": 3685,
      "♂": 3686,
      "♃": 3687,
      "♄": 3688,
      "♅": 3689,
      "♆": 3690,
      "♇": 3691,
      "♈": 3692,
      "♉": 3693,
      "♊": 3694,
      "♋": 3695,
      "♌": 3696,
      "♍": 3697,
      "♎": 3698,
      "♏": 3699,
      "♐": 3700,
      "♑": 3701,
      "♒": 3702,
      "♓": 3703,
      "♔": 3704,
      "♕": 3705,
      "♖": 3706,
      "♗": 3707,
      "♘": 3708,
      "♙": 3709,
      "♚": 3710,
      "♛": 3711,
      "♜": 3712,
      "♝": 3713,
      "♞": 3714,
      "♟": 3715,
      "♠": 3716,
      "♡": 3717,
      "♢": 3718,
      "♣": 3719,
      "♤": 3720,
      "♥": 3721,
      "♦": 3722,
      "♧": 3723,
      "♨": 3724,
      "♩": 3725,
      "♪": 3726,
      "♫": 3727,
      "♬": 3728,
      "♭": 3729,
      "♮": 3730,
      "♯": 3731,
      "♰": 3732,
      "♱": 3733,
      "♲": 3734,
      "♳": 3735,
      "♴": 3736,
      "♵": 3737,
      "♶": 3738,
      "♷": 3739,
      "♸": 3740,
      "♹": 3741,
      "♺": 3742,
      "♻": 3743,
      "♼": 3744,
      "♽": 3745,
      "♾": 3746,
      "♿": 3747,
      "⚀": 3748,
      "⚁": 3749,
      "⚂": 3750,
      "⚃": 3751,
      "⚄": 3752,
      "⚅": 3753,
      "⚆": 3754,
      "⚇": 3755,
      "⚈": 3756,
      "⚉": 3757,
      "⚊": 3758,
      "⚋": 3759,
      "⚐": 3760,
      "⚑": 3761,
      "⚒": 3762,
      "⚓": 3763,
      "⚔": 3764,
      "⚕": 3765,
      "⚖": 3766,
      "⚗": 3767,
      "⚘": 3768,
      "⚙": 3769,
      "⚚": 3770,
      "⚛": 3771,
      "⚜": 3772,
      "⚠": 3773,
      "⚡": 3774,
      "⚰": 3775,
      "⚱": 3776,
      "⚽": 3777,
      "⚾": 3778,
      "⛔": 3779,
      "⛪": 3780,
      "⛵": 3781,
      "⛸": 3782,
      "✁": 3783,
      "✂": 3784,
      "✃": 3785,
      "✄": 3786,
      "✅": 3787,
      "✆": 3788,
      "✇": 3789,
      "✈": 3790,
      "✉": 3791,
      "✊": 3792,
      "✌": 3793,
      "✍": 3794,
      "✎": 3795,
      "✏": 3796,
      "✐": 3797,
      "✑": 3798,
      "✒": 3799,
      "✓": 3800,
      "✔": 3801,
      "✕": 3802,
      "✖": 3803,
      "✗": 3804,
      "✘": 3805,
      "✙": 3806,
      "✚": 3807,
      "✛": 3808,
      "✜": 3809,
      "✝": 3810,
      "✞": 3811,
      "✟": 3812,
      "✠": 3813,
      "✡": 3814,
      "✢": 3815,
      "✣": 3816,
      "✤": 3817,
      "✥": 3818,
      "✦": 3819,
      "✧": 3820,
      "✨": 3821,
      "✩": 3822,
      "✪": 3823,
      "✫": 3824,
      "✬": 3825,
      "✭": 3826,
      "✮": 3827,
      "✯": 3828,
      "✰": 3829,
      "✱": 3830,
      "✲": 3831,
      "✳": 3832,
      "✴": 3833,
      "✵": 3834,
      "✶": 3835,
      "✷": 3836,
      "✸": 3837,
      "✹": 3838,
      "✺": 3839,
      "✻": 3840,
      "✼": 3841,
      "✽": 3842,
      "✾": 3843,
      "✿": 3844,
      "❀": 3845,
      "❁": 3846,
      "❂": 3847,
      "❃": 3848,
      "❄": 3849,
      "❅": 3850,
      "❆": 3851,
      "❇": 3852,
      "❈": 3853,
      "❉": 3854,
      "❊": 3855,
      "❋": 3856,
      "❍": 3857,
      "❏": 3858,
      "❐": 3859,
      "❑": 3860,
      "❒": 3861,
      "❖": 3862,
      "❘": 3863,
      "❙": 3864,
      "❚": 3865,
      "❛": 3866,
      "❜": 3867,
      "❝": 3868,
      "❞": 3869,
      "❡": 3870,
      "❢": 3871,
      "❣": 3872,
      "❤": 3873,
      "❥": 3874,
      "❦": 3875,
      "❧": 3876,
      "❨": 3877,
      "❩": 3878,
      "❪": 3879,
      "❫": 3880,
      "❬": 3881,
      "❭": 3882,
      "❮": 3883,
      "❯": 3884,
      "❰": 3885,
      "❱": 3886,
      "❲": 3887,
      "❳": 3888,
      "❴": 3889,
      "❵": 3890,
      "➔": 3891,
      "➕": 3892,
      "➘": 3893,
      "➙": 3894,
      "➚": 3895,
      "➛": 3896,
      "➜": 3897,
      "➝": 3898,
      "➞": 3899,
      "➟": 3900,
      "➠": 3901,
      "➡": 3902,
      "➢": 3903,
      "➣": 3904,
      "➤": 3905,
      "➥": 3906,
      "➦": 3907,
      "➧": 3908,
      "➨": 3909,
      "➩": 3910,
      "➪": 3911,
      "➫": 3912,
      "➬": 3913,
      "➭": 3914,
      "➮": 3915,
      "➯": 3916,
      "➱": 3917,
      "➲": 3918,
      "➳": 3919,
      "➴": 3920,
      "➵": 3921,
      "➶": 3922,
      "➷": 3923,
      "➸": 3924,
      "➹": 3925,
      "➺": 3926,
      "➻": 3927,
      "➼": 3928,
      "➽": 3929,
      "➾": 3930,
      "⟂": 3931,
      "⟅": 3932,
      "⟆": 3933,
      "⟇": 3934,
      "⟑": 3935,
      "⟜": 3936,
      "⟠": 3937,
      "⟦": 3938,
      "⟧": 3939,
      "⟨": 3940,
      "⟩": 3941,
      "⟪": 3942,
      "⟫": 3943,
      "⟵": 3944,
      "⟶": 3945,
      "⟷": 3946,
      "⠁": 3947,
      "⠂": 3948,
      "⠃": 3949,
      "⠅": 3950,
      "⠇": 3951,
      "⠉": 3952,
      "⠊": 3953,
      "⠋": 3954,
      "⠌": 3955,
      "⠍": 3956,
      "⠎": 3957,
      "⠏": 3958,
      "⠐": 3959,
      "⠑": 3960,
      "⠒": 3961,
      "⠓": 3962,
      "⠕": 3963,
      "⠗": 3964,
      "⠙": 3965,
      "⠚": 3966,
      "⠛": 3967,
      "⠝": 3968,
      "⠞": 3969,
      "⠟": 3970,
      "⠠": 3971,
      "⠢": 3972,
      "⠥": 3973,
      "⠧": 3974,
      "⠨": 3975,
      "⠬": 3976,
      "⠭": 3977,
      "⠮": 3978,
      "⠵": 3979,
      "⠹": 3980,
      "⠺": 3981,
      "⠻": 3982,
      "⠽": 3983,
      "⠿": 3984,
      "⦇": 3985,
      "⦈": 3986,
      "⦗": 3987,
      "⦘": 3988,
      "⧣": 3989,
      "⧫": 3990,
      "⧺": 3991,
      "⧻": 3992,
      "⨀": 3993,
      "⨁": 3994,
      "⨂": 3995,
      "⨯": 3996,
      "⩪": 3997,
      "⩫": 3998,
      "⬅": 3999,
      "⬆": 4000,
      "⬇": 4001,
      "⬈": 4002,
      "⬉": 4003,
      "⬊": 4004,
      "⬋": 4005,
      "⬌": 4006,
      "⬍": 4007,
      "⬒": 4008,
      "⬓": 4009,
      "⬔": 4010,
      "⬕": 4011,
      "⬖": 4012,
      "⬗": 4013,
      "⬘": 4014,
      "⬙": 4015,
      "⬚": 4016,
      "⬛": 4017,
      "⭐": 4018,
      "⮌": 4019,
      "⯅": 4020,
      "⯆": 4021,
      "⯇": 4022,
      "⯈": 4023,
      "Ⱓ": 4024,
      "Ɽ": 4025,
      "Ɑ": 4026,
      "Ɱ": 4027,
      "Ɐ": 4028,
      "Ɒ": 4029,
      "Ⱶ": 4030,
      "ⱶ": 4031,
      "ⱷ": 4032,
      "ⱹ": 4033,
      "ⱺ": 4034,
      "ⱼ": 4035,
      "ⱽ": 4036,
      "Ȿ": 4037,
      "Ɀ": 4038,
      "ⴱ": 4039,
      "ⴲ": 4040,
      "ⴳ": 4041,
      "ⴴ": 4042,
      "ⴵ": 4043,
      "ⴶ": 4044,
      "ⴷ": 4045,
      "ⴸ": 4046,
      "ⴹ": 4047,
      "ⴺ": 4048,
      "ⴻ": 4049,
      "ⴼ": 4050,
      "ⴽ": 4051,
      "ⴾ": 4052,
      "ⴿ": 4053,
      "ⵀ": 4054,
      "ⵁ": 4055,
      "ⵂ": 4056,
      "ⵃ": 4057,
      "ⵄ": 4058,
      "ⵅ": 4059,
      "ⵆ": 4060,
      "ⵇ": 4061,
      "ⵈ": 4062,
      "ⵉ": 4063,
      "ⵊ": 4064,
      "ⵋ": 4065,
      "ⵌ": 4066,
      "ⵍ": 4067,
      "ⵎ": 4068,
      "ⵏ": 4069,
      "ⵐ": 4070,
      "ⵑ": 4071,
      "ⵒ": 4072,
      "ⵓ": 4073,
      "ⵖ": 4074,
      "ⵗ": 4075,
      "ⵘ": 4076,
      "ⵙ": 4077,
      "ⵚ": 4078,
      "ⵛ": 4079,
      "ⵜ": 4080,
      "ⵝ": 4081,
      "ⵞ": 4082,
      "ⵟ": 4083,
      "ⵠ": 4084,
      "ⵡ": 4085,
      "ⵢ": 4086,
      "ⵣ": 4087,
      "ⵤ": 4088,
      "ⵥ": 4089,
      "ⵦ": 4090,
      "ⵧ": 4091,
      "ⵯ": 4092,
      "⵰": 4093,
      "⸘": 4094,
      "⸟": 4095,
      "⸢": 4096,
      "⸣": 4097,
      "⸤": 4098,
      "⸥": 4099,
      "⸮": 4100,
      "、": 4101,
      "。": 4102,
      "々": 4103,
      "〈": 4104,
      "〉": 4105,
      "《": 4106,
      "》": 4107,
      "「": 4108,
      "」": 4109,
      "『": 4110,
      "』": 4111,
      "【": 4112,
      "】": 4113,
      "ぁ": 4114,
      "あ": 4115,
      "ぃ": 4116,
      "い": 4117,
      "ぅ": 4118,
      "う": 4119,
      "ぇ": 4120,
      "え": 4121,
      "ぉ": 4122,
      "お": 4123,
      "か": 4124,
      "が": 4125,
      "き": 4126,
      "ぎ": 4127,
      "く": 4128,
      "ぐ": 4129,
      "け": 4130,
      "げ": 4131,
      "こ": 4132,
      "ご": 4133,
      "さ": 4134,
      "ざ": 4135,
      "し": 4136,
      "じ": 4137,
      "す": 4138,
      "ず": 4139,
      "せ": 4140,
      "ぜ": 4141,
      "そ": 4142,
      "ぞ": 4143,
      "た": 4144,
      "だ": 4145,
      "ち": 4146,
      "ぢ": 4147,
      "っ": 4148,
      "つ": 4149,
      "づ": 4150,
      "て": 4151,
      "で": 4152,
      "と": 4153,
      "ど": 4154,
      "な": 4155,
      "に": 4156,
      "ぬ": 4157,
      "ね": 4158,
      "の": 4159,
      "は": 4160,
      "ば": 4161,
      "ぱ": 4162,
      "ひ": 4163,
      "び": 4164,
      "ぴ": 4165,
      "ふ": 4166,
      "ぶ": 4167,
      "ぷ": 4168,
      "へ": 4169,
      "べ": 4170,
      "ぺ": 4171,
      "ほ": 4172,
      "ぼ": 4173,
      "ぽ": 4174,
      "ま": 4175,
      "み": 4176,
      "む": 4177,
      "め": 4178,
      "も": 4179,
      "ゃ": 4180,
      "や": 4181,
      "ゅ": 4182,
      "ゆ": 4183,
      "ょ": 4184,
      "よ": 4185,
      "ら": 4186,
      "り": 4187,
      "る": 4188,
      "れ": 4189,
      "ろ": 4190,
      "ゎ": 4191,
      "わ": 4192,
      "ゐ": 4193,
      "ゑ": 4194,
      "を": 4195,
      "ん": 4196,
      "゛": 4197,
      "゜": 4198,
      "ゝ": 4199,
      "ゞ": 4200,
      "ァ": 4201,
      "ア": 4202,
      "ィ": 4203,
      "イ": 4204,
      "ゥ": 4205,
      "ウ": 4206,
      "ェ": 4207,
      "エ": 4208,
      "ォ": 4209,
      "オ": 4210,
      "カ": 4211,
      "ガ": 4212,
      "キ": 4213,
      "ギ": 4214,
      "ク": 4215,
      "グ": 4216,
      "ケ": 4217,
      "ゲ": 4218,
      "コ": 4219,
      "ゴ": 4220,
      "サ": 4221,
      "ザ": 4222,
      "シ": 4223,
      "ジ": 4224,
      "ス": 4225,
      "ズ": 4226,
      "セ": 4227,
      "ゼ": 4228,
      "ソ": 4229,
      "ゾ": 4230,
      "タ": 4231,
      "ダ": 4232,
      "チ": 4233,
      "ヂ": 4234,
      "ッ": 4235,
      "ツ": 4236,
      "ヅ": 4237,
      "テ": 4238,
      "デ": 4239,
      "ト": 4240,
      "ド": 4241,
      "ナ": 4242,
      "ニ": 4243,
      "ヌ": 4244,
      "ネ": 4245,
      "ノ": 4246,
      "ハ": 4247,
      "バ": 4248,
      "パ": 4249,
      "ヒ": 4250,
      "ビ": 4251,
      "ピ": 4252,
      "フ": 4253,
      "ブ": 4254,
      "プ": 4255,
      "ヘ": 4256,
      "ベ": 4257,
      "ペ": 4258,
      "ホ": 4259,
      "ボ": 4260,
      "ポ": 4261,
      "マ": 4262,
      "ミ": 4263,
      "ム": 4264,
      "メ": 4265,
      "モ": 4266,
      "ャ": 4267,
      "ヤ": 4268,
      "ュ": 4269,
      "ユ": 4270,
      "ョ": 4271,
      "ヨ": 4272,
      "ラ": 4273,
      "リ": 4274,
      "ル": 4275,
      "レ": 4276,
      "ロ": 4277,
      "ヮ": 4278,
      "ワ": 4279,
      "ヰ": 4280,
      "ヱ": 4281,
      "ヲ": 4282,
      "ン": 4283,
      "ヴ": 4284,
      "ヵ": 4285,
      "ヶ": 4286,
      "・": 4287,
      "ー": 4288,
      "ヽ": 4289,
      "ヾ": 4290,
      "ㄱ": 4291,
      "ㄲ": 4292,
      "ㄷ": 4293,
      "ㄸ": 4294,
      "ㅂ": 4295,
      "ㅃ": 4296,
      "ㅈ": 4297,
      "ㅉ": 4298,
      "ㅊ": 4299,
      "ㅋ": 4300,
      "ㅌ": 4301,
      "ㅍ": 4302,
      "一": 4303,
      "丁": 4304,
      "七": 4305,
      "万": 4306,
      "丈": 4307,
      "三": 4308,
      "上": 4309,
      "下": 4310,
      "不": 4311,
      "与": 4312,
      "丐": 4313,
      "专": 4314,
      "且": 4315,
      "世": 4316,
      "丘": 4317,
      "业": 4318,
      "东": 4319,
      "丝": 4320,
      "丞": 4321,
      "両": 4322,
      "丢": 4323,
      "两": 4324,
      "严": 4325,
      "並": 4326,
      "个": 4327,
      "中": 4328,
      "丰": 4329,
      "串": 4330,
      "临": 4331,
      "丹": 4332,
      "为": 4333,
      "主": 4334,
      "丽": 4335,
      "举": 4336,
      "乃": 4337,
      "久": 4338,
      "么": 4339,
      "义": 4340,
      "之": 4341,
      "乌": 4342,
      "乎": 4343,
      "乏": 4344,
      "乐": 4345,
      "乒": 4346,
      "乓": 4347,
      "乔": 4348,
      "乖": 4349,
      "乗": 4350,
      "乘": 4351,
      "乙": 4352,
      "九": 4353,
      "乞": 4354,
      "也": 4355,
      "习": 4356,
      "乡": 4357,
      "书": 4358,
      "买": 4359,
      "乱": 4360,
      "乳": 4361,
      "乾": 4362,
      "亂": 4363,
      "了": 4364,
      "予": 4365,
      "争": 4366,
      "事": 4367,
      "二": 4368,
      "于": 4369,
      "云": 4370,
      "互": 4371,
      "五": 4372,
      "亚": 4373,
      "些": 4374,
      "亡": 4375,
      "交": 4376,
      "亦": 4377,
      "产": 4378,
      "亨": 4379,
      "亩": 4380,
      "享": 4381,
      "京": 4382,
      "亮": 4383,
      "亲": 4384,
      "人": 4385,
      "亿": 4386,
      "什": 4387,
      "仁": 4388,
      "仅": 4389,
      "今": 4390,
      "介": 4391,
      "仍": 4392,
      "从": 4393,
      "仏": 4394,
      "仔": 4395,
      "仕": 4396,
      "他": 4397,
      "付": 4398,
      "仙": 4399,
      "代": 4400,
      "令": 4401,
      "以": 4402,
      "仪": 4403,
      "们": 4404,
      "仮": 4405,
      "仰": 4406,
      "件": 4407,
      "价": 4408,
      "任": 4409,
      "份": 4410,
      "企": 4411,
      "伊": 4412,
      "伏": 4413,
      "休": 4414,
      "众": 4415,
      "优": 4416,
      "伙": 4417,
      "会": 4418,
      "伝": 4419,
      "伞": 4420,
      "伟": 4421,
      "传": 4422,
      "伤": 4423,
      "伦": 4424,
      "伪": 4425,
      "伯": 4426,
      "估": 4427,
      "伴": 4428,
      "伸": 4429,
      "似": 4430,
      "伽": 4431,
      "但": 4432,
      "位": 4433,
      "低": 4434,
      "住": 4435,
      "体": 4436,
      "佔": 4437,
      "何": 4438,
      "余": 4439,
      "佛": 4440,
      "作": 4441,
      "佟": 4442,
      "你": 4443,
      "佣": 4444,
      "佩": 4445,
      "佳": 4446,
      "併": 4447,
      "使": 4448,
      "來": 4449,
      "例": 4450,
      "供": 4451,
      "依": 4452,
      "価": 4453,
      "侦": 4454,
      "侧": 4455,
      "侯": 4456,
      "侵": 4457,
      "便": 4458,
      "係": 4459,
      "促": 4460,
      "俊": 4461,
      "俗": 4462,
      "保": 4463,
      "俞": 4464,
      "信": 4465,
      "俪": 4466,
      "修": 4467,
      "個": 4468,
      "倍": 4469,
      "們": 4470,
      "倒": 4471,
      "候": 4472,
      "借": 4473,
      "値": 4474,
      "值": 4475,
      "倾": 4476,
      "假": 4477,
      "偏": 4478,
      "做": 4479,
      "停": 4480,
      "健": 4481,
      "側": 4482,
      "偵": 4483,
      "偶": 4484,
      "偷": 4485,
      "偽": 4486,
      "偿": 4487,
      "傑": 4488,
      "備": 4489,
      "储": 4490,
      "催": 4491,
      "傳": 4492,
      "傷": 4493,
      "傾": 4494,
      "僅": 4495,
      "働": 4496,
      "像": 4497,
      "價": 4498,
      "儘": 4499,
      "償": 4500,
      "優": 4501,
      "儲": 4502,
      "儿": 4503,
      "允": 4504,
      "元": 4505,
      "兄": 4506,
      "充": 4507,
      "兆": 4508,
      "先": 4509,
      "光": 4510,
      "克": 4511,
      "免": 4512,
      "兑": 4513,
      "兒": 4514,
      "党": 4515,
      "入": 4516,
      "內": 4517,
      "全": 4518,
      "兩": 4519,
      "八": 4520,
      "公": 4521,
      "六": 4522,
      "兰": 4523,
      "共": 4524,
      "关": 4525,
      "兴": 4526,
      "兵": 4527,
      "其": 4528,
      "具": 4529,
      "典": 4530,
      "养": 4531,
      "兼": 4532,
      "兽": 4533,
      "冀": 4534,
      "内": 4535,
      "円": 4536,
      "冈": 4537,
      "冊": 4538,
      "册": 4539,
      "再": 4540,
      "冒": 4541,
      "冗": 4542,
      "写": 4543,
      "军": 4544,
      "农": 4545,
      "冠": 4546,
      "冥": 4547,
      "冬": 4548,
      "冯": 4549,
      "冰": 4550,
      "冲": 4551,
      "决": 4552,
      "况": 4553,
      "冷": 4554,
      "冻": 4555,
      "净": 4556,
      "准": 4557,
      "凋": 4558,
      "凌": 4559,
      "减": 4560,
      "凑": 4561,
      "几": 4562,
      "凤": 4563,
      "処": 4564,
      "凭": 4565,
      "凯": 4566,
      "凰": 4567,
      "凶": 4568,
      "凸": 4569,
      "出": 4570,
      "击": 4571,
      "函": 4572,
      "凿": 4573,
      "刃": 4574,
      "分": 4575,
      "切": 4576,
      "刊": 4577,
      "刑": 4578,
      "划": 4579,
      "列": 4580,
      "刘": 4581,
      "则": 4582,
      "刚": 4583,
      "创": 4584,
      "初": 4585,
      "删": 4586,
      "判": 4587,
      "別": 4588,
      "利": 4589,
      "别": 4590,
      "到": 4591,
      "制": 4592,
      "刷": 4593,
      "券": 4594,
      "刺": 4595,
      "刻": 4596,
      "剁": 4597,
      "則": 4598,
      "削": 4599,
      "前": 4600,
      "剑": 4601,
      "剖": 4602,
      "剛": 4603,
      "剤": 4604,
      "剧": 4605,
      "剩": 4606,
      "剪": 4607,
      "副": 4608,
      "割": 4609,
      "創": 4610,
      "劃": 4611,
      "力": 4612,
      "劝": 4613,
      "办": 4614,
      "功": 4615,
      "加": 4616,
      "务": 4617,
      "动": 4618,
      "助": 4619,
      "努": 4620,
      "劫": 4621,
      "励": 4622,
      "劲": 4623,
      "劳": 4624,
      "労": 4625,
      "効": 4626,
      "劾": 4627,
      "势": 4628,
      "勃": 4629,
      "勅": 4630,
      "勇": 4631,
      "勉": 4632,
      "勒": 4633,
      "動": 4634,
      "務": 4635,
      "募": 4636,
      "勢": 4637,
      "勤": 4638,
      "勧": 4639,
      "勾": 4640,
      "包": 4641,
      "匈": 4642,
      "化": 4643,
      "北": 4644,
      "匙": 4645,
      "匪": 4646,
      "匹": 4647,
      "区": 4648,
      "医": 4649,
      "區": 4650,
      "十": 4651,
      "千": 4652,
      "升": 4653,
      "午": 4654,
      "卉": 4655,
      "半": 4656,
      "华": 4657,
      "协": 4658,
      "卓": 4659,
      "協": 4660,
      "单": 4661,
      "卖": 4662,
      "南": 4663,
      "単": 4664,
      "博": 4665,
      "卜": 4666,
      "占": 4667,
      "卡": 4668,
      "卢": 4669,
      "卫": 4670,
      "印": 4671,
      "危": 4672,
      "即": 4673,
      "却": 4674,
      "卵": 4675,
      "卷": 4676,
      "卸": 4677,
      "厂": 4678,
      "厅": 4679,
      "历": 4680,
      "厉": 4681,
      "压": 4682,
      "厚": 4683,
      "原": 4684,
      "厦": 4685,
      "厳": 4686,
      "去": 4687,
      "县": 4688,
      "参": 4689,
      "參": 4690,
      "又": 4691,
      "叉": 4692,
      "及": 4693,
      "友": 4694,
      "双": 4695,
      "反": 4696,
      "収": 4697,
      "发": 4698,
      "取": 4699,
      "受": 4700,
      "变": 4701,
      "叠": 4702,
      "口": 4703,
      "古": 4704,
      "句": 4705,
      "另": 4706,
      "只": 4707,
      "叫": 4708,
      "召": 4709,
      "可": 4710,
      "台": 4711,
      "史": 4712,
      "右": 4713,
      "叶": 4714,
      "号": 4715,
      "司": 4716,
      "叹": 4717,
      "吁": 4718,
      "吃": 4719,
      "各": 4720,
      "合": 4721,
      "吉": 4722,
      "同": 4723,
      "名": 4724,
      "后": 4725,
      "吐": 4726,
      "向": 4727,
      "吗": 4728,
      "君": 4729,
      "吟": 4730,
      "吡": 4731,
      "否": 4732,
      "吧": 4733,
      "含": 4734,
      "听": 4735,
      "启": 4736,
      "吴": 4737,
      "吸": 4738,
      "吼": 4739,
      "呀": 4740,
      "告": 4741,
      "呐": 4742,
      "员": 4743,
      "呢": 4744,
      "周": 4745,
      "味": 4746,
      "呼": 4747,
      "命": 4748,
      "和": 4749,
      "咒": 4750,
      "咨": 4751,
      "咪": 4752,
      "咸": 4753,
      "品": 4754,
      "哈": 4755,
      "响": 4756,
      "哎": 4757,
      "員": 4758,
      "哥": 4759,
      "哦": 4760,
      "哪": 4761,
      "哲": 4762,
      "唇": 4763,
      "唐": 4764,
      "唑": 4765,
      "唤": 4766,
      "售": 4767,
      "唯": 4768,
      "唱": 4769,
      "商": 4770,
      "啊": 4771,
      "問": 4772,
      "啥": 4773,
      "喂": 4774,
      "善": 4775,
      "喆": 4776,
      "喉": 4777,
      "喊": 4778,
      "喜": 4779,
      "單": 4780,
      "営": 4781,
      "喷": 4782,
      "喻": 4783,
      "嗎": 4784,
      "嗨": 4785,
      "嗪": 4786,
      "嘉": 4787,
      "嘔": 4788,
      "嘗": 4789,
      "嘴": 4790,
      "嘶": 4791,
      "噁": 4792,
      "器": 4793,
      "噴": 4794,
      "噻": 4795,
      "嚴": 4796,
      "囚": 4797,
      "四": 4798,
      "回": 4799,
      "因": 4800,
      "团": 4801,
      "団": 4802,
      "园": 4803,
      "困": 4804,
      "囲": 4805,
      "図": 4806,
      "围": 4807,
      "固": 4808,
      "国": 4809,
      "图": 4810,
      "圆": 4811,
      "圈": 4812,
      "國": 4813,
      "圍": 4814,
      "圖": 4815,
      "團": 4816,
      "土": 4817,
      "圣": 4818,
      "圧": 4819,
      "在": 4820,
      "地": 4821,
      "圳": 4822,
      "场": 4823,
      "圾": 4824,
      "址": 4825,
      "均": 4826,
      "坉": 4827,
      "坊": 4828,
      "坏": 4829,
      "坐": 4830,
      "块": 4831,
      "坚": 4832,
      "坛": 4833,
      "坟": 4834,
      "坠": 4835,
      "坡": 4836,
      "坤": 4837,
      "坦": 4838,
      "坪": 4839,
      "垂": 4840,
      "垃": 4841,
      "垄": 4842,
      "型": 4843,
      "垒": 4844,
      "埋": 4845,
      "城": 4846,
      "域": 4847,
      "執": 4848,
      "培": 4849,
      "基": 4850,
      "堂": 4851,
      "堅": 4852,
      "堆": 4853,
      "堡": 4854,
      "報": 4855,
      "場": 4856,
      "塊": 4857,
      "塔": 4858,
      "塗": 4859,
      "塘": 4860,
      "塞": 4861,
      "填": 4862,
      "境": 4863,
      "墓": 4864,
      "増": 4865,
      "墙": 4866,
      "墜": 4867,
      "增": 4868,
      "墨": 4869,
      "壁": 4870,
      "壊": 4871,
      "壓": 4872,
      "士": 4873,
      "壯": 4874,
      "声": 4875,
      "売": 4876,
      "壳": 4877,
      "处": 4878,
      "备": 4879,
      "変": 4880,
      "复": 4881,
      "夏": 4882,
      "外": 4883,
      "多": 4884,
      "夜": 4885,
      "够": 4886,
      "夠": 4887,
      "夢": 4888,
      "大": 4889,
      "天": 4890,
      "太": 4891,
      "夫": 4892,
      "央": 4893,
      "失": 4894,
      "头": 4895,
      "夷": 4896,
      "夹": 4897,
      "夺": 4898,
      "奇": 4899,
      "奋": 4900,
      "奎": 4901,
      "奏": 4902,
      "奔": 4903,
      "奖": 4904,
      "套": 4905,
      "奥": 4906,
      "奪": 4907,
      "女": 4908,
      "奴": 4909,
      "奶": 4910,
      "她": 4911,
      "好": 4912,
      "如": 4913,
      "妆": 4914,
      "妈": 4915,
      "妖": 4916,
      "妙": 4917,
      "妥": 4918,
      "妻": 4919,
      "姆": 4920,
      "始": 4921,
      "姓": 4922,
      "委": 4923,
      "姚": 4924,
      "姜": 4925,
      "姬": 4926,
      "姿": 4927,
      "威": 4928,
      "娜": 4929,
      "娱": 4930,
      "婚": 4931,
      "婴": 4932,
      "媒": 4933,
      "嫌": 4934,
      "嬉": 4935,
      "子": 4936,
      "孔": 4937,
      "孕": 4938,
      "字": 4939,
      "存": 4940,
      "孙": 4941,
      "孝": 4942,
      "季": 4943,
      "学": 4944,
      "孩": 4945,
      "孫": 4946,
      "學": 4947,
      "宁": 4948,
      "它": 4949,
      "宇": 4950,
      "守": 4951,
      "安": 4952,
      "宋": 4953,
      "完": 4954,
      "宏": 4955,
      "宗": 4956,
      "官": 4957,
      "宙": 4958,
      "定": 4959,
      "宛": 4960,
      "宝": 4961,
      "实": 4962,
      "実": 4963,
      "审": 4964,
      "客": 4965,
      "宣": 4966,
      "室": 4967,
      "宫": 4968,
      "害": 4969,
      "宴": 4970,
      "家": 4971,
      "容": 4972,
      "宽": 4973,
      "宾": 4974,
      "宿": 4975,
      "寂": 4976,
      "寄": 4977,
      "寅": 4978,
      "密": 4979,
      "富": 4980,
      "寒": 4981,
      "寝": 4982,
      "察": 4983,
      "實": 4984,
      "寧": 4985,
      "審": 4986,
      "寫": 4987,
      "寸": 4988,
      "对": 4989,
      "寺": 4990,
      "寻": 4991,
      "导": 4992,
      "対": 4993,
      "封": 4994,
      "専": 4995,
      "射": 4996,
      "将": 4997,
      "將": 4998,
      "專": 4999,
      "尊": 5000,
      "尋": 5001,
      "對": 5002,
      "導": 5003,
      "小": 5004,
      "少": 5005,
      "尔": 5006,
      "尖": 5007,
      "尚": 5008,
      "尝": 5009,
      "尤": 5010,
      "就": 5011,
      "尺": 5012,
      "尼": 5013,
      "尽": 5014,
      "尾": 5015,
      "尿": 5016,
      "局": 5017,
      "层": 5018,
      "居": 5019,
      "屉": 5020,
      "届": 5021,
      "屋": 5022,
      "屏": 5023,
      "展": 5024,
      "属": 5025,
      "層": 5026,
      "履": 5027,
      "屬": 5028,
      "山": 5029,
      "岁": 5030,
      "岗": 5031,
      "岡": 5032,
      "岭": 5033,
      "岳": 5034,
      "岿": 5035,
      "峪": 5036,
      "峰": 5037,
      "島": 5038,
      "崇": 5039,
      "崔": 5040,
      "嵌": 5041,
      "嵐": 5042,
      "川": 5043,
      "州": 5044,
      "巡": 5045,
      "工": 5046,
      "左": 5047,
      "巧": 5048,
      "巨": 5049,
      "差": 5050,
      "己": 5051,
      "已": 5052,
      "巴": 5053,
      "巻": 5054,
      "市": 5055,
      "布": 5056,
      "帅": 5057,
      "帆": 5058,
      "师": 5059,
      "希": 5060,
      "帐": 5061,
      "帕": 5062,
      "帝": 5063,
      "带": 5064,
      "帧": 5065,
      "師": 5066,
      "席": 5067,
      "帮": 5068,
      "帯": 5069,
      "帰": 5070,
      "帳": 5071,
      "帶": 5072,
      "常": 5073,
      "幅": 5074,
      "幕": 5075,
      "幡": 5076,
      "幣": 5077,
      "幫": 5078,
      "干": 5079,
      "平": 5080,
      "年": 5081,
      "并": 5082,
      "幸": 5083,
      "幻": 5084,
      "幽": 5085,
      "幾": 5086,
      "广": 5087,
      "広": 5088,
      "庄": 5089,
      "庆": 5090,
      "床": 5091,
      "序": 5092,
      "库": 5093,
      "应": 5094,
      "底": 5095,
      "店": 5096,
      "庙": 5097,
      "庚": 5098,
      "府": 5099,
      "庞": 5100,
      "废": 5101,
      "度": 5102,
      "座": 5103,
      "庫": 5104,
      "庭": 5105,
      "康": 5106,
      "廉": 5107,
      "廊": 5108,
      "廓": 5109,
      "廠": 5110,
      "廢": 5111,
      "延": 5112,
      "廷": 5113,
      "建": 5114,
      "开": 5115,
      "弁": 5116,
      "异": 5117,
      "弃": 5118,
      "式": 5119,
      "弓": 5120,
      "引": 5121,
      "弗": 5122,
      "弟": 5123,
      "张": 5124,
      "弥": 5125,
      "弯": 5126,
      "弱": 5127,
      "張": 5128,
      "強": 5129,
      "弹": 5130,
      "强": 5131,
      "弾": 5132,
      "归": 5133,
      "当": 5134,
      "录": 5135,
      "彙": 5136,
      "形": 5137,
      "彩": 5138,
      "彭": 5139,
      "彰": 5140,
      "影": 5141,
      "役": 5142,
      "彻": 5143,
      "彼": 5144,
      "往": 5145,
      "征": 5146,
      "径": 5147,
      "待": 5148,
      "很": 5149,
      "律": 5150,
      "後": 5151,
      "徐": 5152,
      "徒": 5153,
      "従": 5154,
      "得": 5155,
      "從": 5156,
      "御": 5157,
      "復": 5158,
      "循": 5159,
      "微": 5160,
      "徳": 5161,
      "徴": 5162,
      "徵": 5163,
      "德": 5164,
      "徹": 5165,
      "徽": 5166,
      "心": 5167,
      "必": 5168,
      "志": 5169,
      "忘": 5170,
      "忙": 5171,
      "応": 5172,
      "忠": 5173,
      "快": 5174,
      "念": 5175,
      "忽": 5176,
      "怀": 5177,
      "态": 5178,
      "怎": 5179,
      "怒": 5180,
      "怕": 5181,
      "怖": 5182,
      "怜": 5183,
      "思": 5184,
      "急": 5185,
      "性": 5186,
      "怪": 5187,
      "总": 5188,
      "恋": 5189,
      "恐": 5190,
      "恒": 5191,
      "恢": 5192,
      "恩": 5193,
      "恭": 5194,
      "息": 5195,
      "恰": 5196,
      "恵": 5197,
      "恶": 5198,
      "恼": 5199,
      "悉": 5200,
      "悍": 5201,
      "悔": 5202,
      "悖": 5203,
      "悟": 5204,
      "患": 5205,
      "悦": 5206,
      "您": 5207,
      "悪": 5208,
      "悬": 5209,
      "悲": 5210,
      "情": 5211,
      "惑": 5212,
      "惜": 5213,
      "惠": 5214,
      "惧": 5215,
      "惨": 5216,
      "惩": 5217,
      "惯": 5218,
      "想": 5219,
      "愈": 5220,
      "意": 5221,
      "愛": 5222,
      "感": 5223,
      "愿": 5224,
      "態": 5225,
      "慕": 5226,
      "慢": 5227,
      "慣": 5228,
      "慨": 5229,
      "慮": 5230,
      "憲": 5231,
      "憾": 5232,
      "懂": 5233,
      "應": 5234,
      "戈": 5235,
      "戏": 5236,
      "成": 5237,
      "我": 5238,
      "戒": 5239,
      "或": 5240,
      "战": 5241,
      "戦": 5242,
      "截": 5243,
      "戯": 5244,
      "戰": 5245,
      "戲": 5246,
      "戴": 5247,
      "戶": 5248,
      "户": 5249,
      "戻": 5250,
      "戾": 5251,
      "房": 5252,
      "所": 5253,
      "扇": 5254,
      "手": 5255,
      "才": 5256,
      "扎": 5257,
      "打": 5258,
      "払": 5259,
      "托": 5260,
      "扣": 5261,
      "执": 5262,
      "扩": 5263,
      "扫": 5264,
      "扬": 5265,
      "扮": 5266,
      "扱": 5267,
      "扶": 5268,
      "批": 5269,
      "找": 5270,
      "承": 5271,
      "技": 5272,
      "抉": 5273,
      "把": 5274,
      "抑": 5275,
      "抓": 5276,
      "投": 5277,
      "抖": 5278,
      "抗": 5279,
      "折": 5280,
      "抛": 5281,
      "抜": 5282,
      "抢": 5283,
      "抣": 5284,
      "护": 5285,
      "报": 5286,
      "披": 5287,
      "抬": 5288,
      "抰": 5289,
      "抱": 5290,
      "抵": 5291,
      "押": 5292,
      "抽": 5293,
      "担": 5294,
      "拆": 5295,
      "拉": 5296,
      "拍": 5297,
      "拒": 5298,
      "拓": 5299,
      "拔": 5300,
      "拖": 5301,
      "拘": 5302,
      "招": 5303,
      "拜": 5304,
      "拟": 5305,
      "拠": 5306,
      "拥": 5307,
      "拨": 5308,
      "择": 5309,
      "括": 5310,
      "拯": 5311,
      "拼": 5312,
      "拽": 5313,
      "拾": 5314,
      "拿": 5315,
      "持": 5316,
      "挂": 5317,
      "指": 5318,
      "按": 5319,
      "挑": 5320,
      "挖": 5321,
      "挙": 5322,
      "挡": 5323,
      "挤": 5324,
      "挥": 5325,
      "挨": 5326,
      "振": 5327,
      "挽": 5328,
      "捉": 5329,
      "捕": 5330,
      "损": 5331,
      "换": 5332,
      "捧": 5333,
      "捨": 5334,
      "据": 5335,
      "捷": 5336,
      "授": 5337,
      "掉": 5338,
      "掌": 5339,
      "排": 5340,
      "掘": 5341,
      "掛": 5342,
      "掠": 5343,
      "採": 5344,
      "探": 5345,
      "接": 5346,
      "控": 5347,
      "推": 5348,
      "措": 5349,
      "掲": 5350,
      "掺": 5351,
      "揃": 5352,
      "描": 5353,
      "提": 5354,
      "插": 5355,
      "換": 5356,
      "握": 5357,
      "揭": 5358,
      "援": 5359,
      "損": 5360,
      "搏": 5361,
      "搜": 5362,
      "搞": 5363,
      "搬": 5364,
      "搭": 5365,
      "携": 5366,
      "摄": 5367,
      "摆": 5368,
      "摘": 5369,
      "摩": 5370,
      "摸": 5371,
      "撃": 5372,
      "撑": 5373,
      "撞": 5374,
      "撤": 5375,
      "播": 5376,
      "撮": 5377,
      "撼": 5378,
      "擅": 5379,
      "擊": 5380,
      "操": 5381,
      "擎": 5382,
      "據": 5383,
      "擦": 5384,
      "擬": 5385,
      "擴": 5386,
      "擷": 5387,
      "擿": 5388,
      "攜": 5389,
      "攝": 5390,
      "支": 5391,
      "收": 5392,
      "改": 5393,
      "攻": 5394,
      "放": 5395,
      "政": 5396,
      "故": 5397,
      "效": 5398,
      "敏": 5399,
      "救": 5400,
      "教": 5401,
      "敛": 5402,
      "敢": 5403,
      "散": 5404,
      "敦": 5405,
      "敬": 5406,
      "数": 5407,
      "敲": 5408,
      "整": 5409,
      "敵": 5410,
      "數": 5411,
      "文": 5412,
      "斑": 5413,
      "斗": 5414,
      "料": 5415,
      "斜": 5416,
      "斧": 5417,
      "断": 5418,
      "斯": 5419,
      "新": 5420,
      "斷": 5421,
      "方": 5422,
      "於": 5423,
      "施": 5424,
      "旅": 5425,
      "旋": 5426,
      "族": 5427,
      "旗": 5428,
      "无": 5429,
      "既": 5430,
      "日": 5431,
      "旦": 5432,
      "旧": 5433,
      "旨": 5434,
      "早": 5435,
      "旭": 5436,
      "时": 5437,
      "旷": 5438,
      "旺": 5439,
      "昆": 5440,
      "昇": 5441,
      "昊": 5442,
      "昌": 5443,
      "明": 5444,
      "易": 5445,
      "星": 5446,
      "映": 5447,
      "春": 5448,
      "昧": 5449,
      "昨": 5450,
      "是": 5451,
      "昵": 5452,
      "显": 5453,
      "時": 5454,
      "晋": 5455,
      "晓": 5456,
      "晔": 5457,
      "晕": 5458,
      "晚": 5459,
      "晤": 5460,
      "晨": 5461,
      "晩": 5462,
      "普": 5463,
      "景": 5464,
      "晰": 5465,
      "晴": 5466,
      "智": 5467,
      "暂": 5468,
      "暑": 5469,
      "暖": 5470,
      "暗": 5471,
      "暢": 5472,
      "暧": 5473,
      "暨": 5474,
      "暫": 5475,
      "暮": 5476,
      "暴": 5477,
      "曇": 5478,
      "曜": 5479,
      "曲": 5480,
      "更": 5481,
      "書": 5482,
      "曹": 5483,
      "曼": 5484,
      "曾": 5485,
      "替": 5486,
      "最": 5487,
      "會": 5488,
      "月": 5489,
      "有": 5490,
      "朋": 5491,
      "服": 5492,
      "朔": 5493,
      "朗": 5494,
      "望": 5495,
      "朝": 5496,
      "期": 5497,
      "木": 5498,
      "未": 5499,
      "末": 5500,
      "本": 5501,
      "术": 5502,
      "朱": 5503,
      "机": 5504,
      "杀": 5505,
      "杂": 5506,
      "权": 5507,
      "杉": 5508,
      "李": 5509,
      "材": 5510,
      "村": 5511,
      "束": 5512,
      "条": 5513,
      "来": 5514,
      "杨": 5515,
      "杭": 5516,
      "杯": 5517,
      "杰": 5518,
      "東": 5519,
      "松": 5520,
      "板": 5521,
      "极": 5522,
      "构": 5523,
      "析": 5524,
      "林": 5525,
      "枚": 5526,
      "果": 5527,
      "枪": 5528,
      "架": 5529,
      "柏": 5530,
      "某": 5531,
      "染": 5532,
      "柔": 5533,
      "查": 5534,
      "柯": 5535,
      "柱": 5536,
      "査": 5537,
      "柿": 5538,
      "栄": 5539,
      "标": 5540,
      "栋": 5541,
      "栏": 5542,
      "树": 5543,
      "校": 5544,
      "株": 5545,
      "样": 5546,
      "核": 5547,
      "根": 5548,
      "格": 5549,
      "桂": 5550,
      "桅": 5551,
      "框": 5552,
      "案": 5553,
      "桌": 5554,
      "桐": 5555,
      "桑": 5556,
      "档": 5557,
      "桥": 5558,
      "桦": 5559,
      "桩": 5560,
      "桿": 5561,
      "梅": 5562,
      "條": 5563,
      "梦": 5564,
      "梯": 5565,
      "械": 5566,
      "梵": 5567,
      "检": 5568,
      "棄": 5569,
      "棋": 5570,
      "棚": 5571,
      "森": 5572,
      "植": 5573,
      "椒": 5574,
      "検": 5575,
      "楚": 5576,
      "業": 5577,
      "極": 5578,
      "楼": 5579,
      "楽": 5580,
      "概": 5581,
      "榆": 5582,
      "榨": 5583,
      "構": 5584,
      "様": 5585,
      "槛": 5586,
      "槽": 5587,
      "樂": 5588,
      "樊": 5589,
      "樓": 5590,
      "標": 5591,
      "模": 5592,
      "樣": 5593,
      "権": 5594,
      "横": 5595,
      "樯": 5596,
      "樱": 5597,
      "橘": 5598,
      "橙": 5599,
      "機": 5600,
      "檔": 5601,
      "檢": 5602,
      "欄": 5603,
      "權": 5604,
      "欠": 5605,
      "次": 5606,
      "欢": 5607,
      "欣": 5608,
      "欧": 5609,
      "欲": 5610,
      "欺": 5611,
      "款": 5612,
      "歇": 5613,
      "歉": 5614,
      "歌": 5615,
      "歐": 5616,
      "歓": 5617,
      "歡": 5618,
      "止": 5619,
      "正": 5620,
      "此": 5621,
      "步": 5622,
      "武": 5623,
      "歧": 5624,
      "歩": 5625,
      "歳": 5626,
      "歷": 5627,
      "歸": 5628,
      "死": 5629,
      "殊": 5630,
      "残": 5631,
      "殖": 5632,
      "殡": 5633,
      "段": 5634,
      "殺": 5635,
      "殿": 5636,
      "毁": 5637,
      "母": 5638,
      "毎": 5639,
      "每": 5640,
      "毒": 5641,
      "比": 5642,
      "毕": 5643,
      "毛": 5644,
      "毫": 5645,
      "氏": 5646,
      "民": 5647,
      "气": 5648,
      "気": 5649,
      "氛": 5650,
      "氢": 5651,
      "氣": 5652,
      "氧": 5653,
      "氨": 5654,
      "氮": 5655,
      "氰": 5656,
      "水": 5657,
      "氷": 5658,
      "永": 5659,
      "汀": 5660,
      "汁": 5661,
      "求": 5662,
      "汇": 5663,
      "汉": 5664,
      "汚": 5665,
      "江": 5666,
      "池": 5667,
      "污": 5668,
      "汪": 5669,
      "汰": 5670,
      "汶": 5671,
      "決": 5672,
      "汽": 5673,
      "沃": 5674,
      "沈": 5675,
      "沉": 5676,
      "沌": 5677,
      "沒": 5678,
      "沙": 5679,
      "沛": 5680,
      "沟": 5681,
      "没": 5682,
      "沢": 5683,
      "沪": 5684,
      "河": 5685,
      "油": 5686,
      "治": 5687,
      "沽": 5688,
      "沿": 5689,
      "況": 5690,
      "泄": 5691,
      "泊": 5692,
      "泌": 5693,
      "法": 5694,
      "泛": 5695,
      "泡": 5696,
      "波": 5697,
      "泥": 5698,
      "注": 5699,
      "泪": 5700,
      "泰": 5701,
      "泳": 5702,
      "泽": 5703,
      "洁": 5704,
      "洋": 5705,
      "洗": 5706,
      "洛": 5707,
      "洞": 5708,
      "津": 5709,
      "洪": 5710,
      "洲": 5711,
      "活": 5712,
      "派": 5713,
      "流": 5714,
      "测": 5715,
      "济": 5716,
      "浏": 5717,
      "浙": 5718,
      "浦": 5719,
      "浪": 5720,
      "浮": 5721,
      "海": 5722,
      "消": 5723,
      "涉": 5724,
      "涌": 5725,
      "涛": 5726,
      "润": 5727,
      "涨": 5728,
      "液": 5729,
      "涵": 5730,
      "涼": 5731,
      "淆": 5732,
      "淑": 5733,
      "淘": 5734,
      "淡": 5735,
      "深": 5736,
      "混": 5737,
      "添": 5738,
      "淼": 5739,
      "清": 5740,
      "渇": 5741,
      "済": 5742,
      "渐": 5743,
      "減": 5744,
      "渝": 5745,
      "渠": 5746,
      "渡": 5747,
      "温": 5748,
      "測": 5749,
      "港": 5750,
      "渲": 5751,
      "游": 5752,
      "湖": 5753,
      "湘": 5754,
      "湛": 5755,
      "湾": 5756,
      "満": 5757,
      "源": 5758,
      "準": 5759,
      "溜": 5760,
      "溝": 5761,
      "溢": 5762,
      "溴": 5763,
      "溶": 5764,
      "滇": 5765,
      "滑": 5766,
      "滚": 5767,
      "满": 5768,
      "滤": 5769,
      "滯": 5770,
      "滿": 5771,
      "漂": 5772,
      "漏": 5773,
      "演": 5774,
      "漢": 5775,
      "漫": 5776,
      "潘": 5777,
      "潛": 5778,
      "潜": 5779,
      "潮": 5780,
      "潰": 5781,
      "澄": 5782,
      "澈": 5783,
      "澳": 5784,
      "澶": 5785,
      "激": 5786,
      "濃": 5787,
      "濟": 5788,
      "濾": 5789,
      "瀚": 5790,
      "灃": 5791,
      "灌": 5792,
      "灣": 5793,
      "火": 5794,
      "灯": 5795,
      "灰": 5796,
      "灵": 5797,
      "灾": 5798,
      "炎": 5799,
      "炒": 5800,
      "炫": 5801,
      "炭": 5802,
      "炸": 5803,
      "点": 5804,
      "為": 5805,
      "炼": 5806,
      "烁": 5807,
      "烈": 5808,
      "烘": 5809,
      "烛": 5810,
      "烟": 5811,
      "烤": 5812,
      "烦": 5813,
      "烧": 5814,
      "烨": 5815,
      "烫": 5816,
      "热": 5817,
      "焕": 5818,
      "無": 5819,
      "焦": 5820,
      "然": 5821,
      "煌": 5822,
      "煙": 5823,
      "照": 5824,
      "煨": 5825,
      "熟": 5826,
      "熱": 5827,
      "燃": 5828,
      "燒": 5829,
      "營": 5830,
      "爆": 5831,
      "爐": 5832,
      "爭": 5833,
      "爱": 5834,
      "父": 5835,
      "爷": 5836,
      "片": 5837,
      "版": 5838,
      "牌": 5839,
      "牙": 5840,
      "牛": 5841,
      "牡": 5842,
      "牢": 5843,
      "牦": 5844,
      "牧": 5845,
      "物": 5846,
      "牲": 5847,
      "特": 5848,
      "牺": 5849,
      "犬": 5850,
      "犯": 5851,
      "状": 5852,
      "狀": 5853,
      "狂": 5854,
      "狗": 5855,
      "独": 5856,
      "狭": 5857,
      "猛": 5858,
      "猫": 5859,
      "献": 5860,
      "猿": 5861,
      "獄": 5862,
      "獎": 5863,
      "獲": 5864,
      "獺": 5865,
      "獻": 5866,
      "率": 5867,
      "玉": 5868,
      "王": 5869,
      "玛": 5870,
      "玩": 5871,
      "环": 5872,
      "现": 5873,
      "玲": 5874,
      "珊": 5875,
      "珍": 5876,
      "珠": 5877,
      "班": 5878,
      "現": 5879,
      "球": 5880,
      "理": 5881,
      "琳": 5882,
      "琴": 5883,
      "琼": 5884,
      "瑚": 5885,
      "瑜": 5886,
      "瑞": 5887,
      "瑟": 5888,
      "瑶": 5889,
      "璐": 5890,
      "環": 5891,
      "瓦": 5892,
      "瓶": 5893,
      "甄": 5894,
      "甘": 5895,
      "甚": 5896,
      "甜": 5897,
      "生": 5898,
      "產": 5899,
      "産": 5900,
      "用": 5901,
      "田": 5902,
      "由": 5903,
      "申": 5904,
      "电": 5905,
      "男": 5906,
      "町": 5907,
      "画": 5908,
      "界": 5909,
      "畏": 5910,
      "留": 5911,
      "畜": 5912,
      "畢": 5913,
      "略": 5914,
      "畫": 5915,
      "異": 5916,
      "當": 5917,
      "疆": 5918,
      "疑": 5919,
      "疗": 5920,
      "疫": 5921,
      "疯": 5922,
      "疲": 5923,
      "疾": 5924,
      "病": 5925,
      "症": 5926,
      "痊": 5927,
      "痕": 5928,
      "痛": 5929,
      "痴": 5930,
      "瘍": 5931,
      "瘤": 5932,
      "療": 5933,
      "癌": 5934,
      "発": 5935,
      "登": 5936,
      "發": 5937,
      "白": 5938,
      "百": 5939,
      "的": 5940,
      "皆": 5941,
      "皇": 5942,
      "皖": 5943,
      "皮": 5944,
      "皿": 5945,
      "益": 5946,
      "盐": 5947,
      "监": 5948,
      "盒": 5949,
      "盖": 5950,
      "盗": 5951,
      "盘": 5952,
      "盛": 5953,
      "盟": 5954,
      "監": 5955,
      "目": 5956,
      "盲": 5957,
      "直": 5958,
      "相": 5959,
      "盾": 5960,
      "省": 5961,
      "眉": 5962,
      "看": 5963,
      "県": 5964,
      "真": 5965,
      "眠": 5966,
      "眼": 5967,
      "着": 5968,
      "睛": 5969,
      "睡": 5970,
      "睫": 5971,
      "睿": 5972,
      "瞭": 5973,
      "瞳": 5974,
      "矛": 5975,
      "矢": 5976,
      "知": 5977,
      "矩": 5978,
      "短": 5979,
      "石": 5980,
      "矶": 5981,
      "码": 5982,
      "砂": 5983,
      "研": 5984,
      "破": 5985,
      "础": 5986,
      "硅": 5987,
      "硕": 5988,
      "硝": 5989,
      "硫": 5990,
      "硬": 5991,
      "确": 5992,
      "碍": 5993,
      "碑": 5994,
      "碗": 5995,
      "碧": 5996,
      "碰": 5997,
      "碱": 5998,
      "碳": 5999,
      "確": 6000,
      "碼": 6001,
      "碾": 6002,
      "磁": 6003,
      "磅": 6004,
      "磊": 6005,
      "磨": 6006,
      "磷": 6007,
      "礁": 6008,
      "示": 6009,
      "礼": 6010,
      "社": 6011,
      "祈": 6012,
      "祉": 6013,
      "祖": 6014,
      "祝": 6015,
      "神": 6016,
      "票": 6017,
      "祷": 6018,
      "祸": 6019,
      "祺": 6020,
      "禁": 6021,
      "禍": 6022,
      "福": 6023,
      "离": 6024,
      "秀": 6025,
      "私": 6026,
      "秋": 6027,
      "种": 6028,
      "科": 6029,
      "秒": 6030,
      "秘": 6031,
      "租": 6032,
      "秦": 6033,
      "秩": 6034,
      "积": 6035,
      "称": 6036,
      "移": 6037,
      "稀": 6038,
      "程": 6039,
      "稍": 6040,
      "税": 6041,
      "稠": 6042,
      "稣": 6043,
      "種": 6044,
      "稱": 6045,
      "稳": 6046,
      "稿": 6047,
      "穀": 6048,
      "穆": 6049,
      "積": 6050,
      "穩": 6051,
      "穴": 6052,
      "究": 6053,
      "穷": 6054,
      "空": 6055,
      "穿": 6056,
      "突": 6057,
      "窃": 6058,
      "窍": 6059,
      "窑": 6060,
      "窓": 6061,
      "窗": 6062,
      "窟": 6063,
      "窮": 6064,
      "立": 6065,
      "站": 6066,
      "竞": 6067,
      "章": 6068,
      "童": 6069,
      "端": 6070,
      "競": 6071,
      "竹": 6072,
      "笋": 6073,
      "笑": 6074,
      "笔": 6075,
      "笛": 6076,
      "符": 6077,
      "第": 6078,
      "笼": 6079,
      "筆": 6080,
      "等": 6081,
      "筒": 6082,
      "答": 6083,
      "策": 6084,
      "筛": 6085,
      "筠": 6086,
      "签": 6087,
      "简": 6088,
      "算": 6089,
      "管": 6090,
      "箱": 6091,
      "箸": 6092,
      "節": 6093,
      "範": 6094,
      "篇": 6095,
      "篡": 6096,
      "篮": 6097,
      "簡": 6098,
      "籍": 6099,
      "米": 6100,
      "类": 6101,
      "粉": 6102,
      "粑": 6103,
      "粒": 6104,
      "粗": 6105,
      "粘": 6106,
      "粛": 6107,
      "粤": 6108,
      "粵": 6109,
      "精": 6110,
      "糕": 6111,
      "糖": 6112,
      "糧": 6113,
      "系": 6114,
      "紀": 6115,
      "約": 6116,
      "紐": 6117,
      "紛": 6118,
      "素": 6119,
      "索": 6120,
      "紧": 6121,
      "紫": 6122,
      "累": 6123,
      "細": 6124,
      "紹": 6125,
      "終": 6126,
      "組": 6127,
      "経": 6128,
      "結": 6129,
      "絕": 6130,
      "絡": 6131,
      "給": 6132,
      "統": 6133,
      "絲": 6134,
      "絵": 6135,
      "絶": 6136,
      "經": 6137,
      "継": 6138,
      "続": 6139,
      "綜": 6140,
      "綢": 6141,
      "維": 6142,
      "網": 6143,
      "綺": 6144,
      "緊": 6145,
      "総": 6146,
      "緑": 6147,
      "緒": 6148,
      "線": 6149,
      "締": 6150,
      "編": 6151,
      "緩": 6152,
      "緯": 6153,
      "練": 6154,
      "總": 6155,
      "繁": 6156,
      "織": 6157,
      "繪": 6158,
      "繫": 6159,
      "繰": 6160,
      "繼": 6161,
      "續": 6162,
      "纖": 6163,
      "纠": 6164,
      "红": 6165,
      "纤": 6166,
      "约": 6167,
      "级": 6168,
      "纪": 6169,
      "纯": 6170,
      "纳": 6171,
      "纵": 6172,
      "纶": 6173,
      "纷": 6174,
      "纸": 6175,
      "纹": 6176,
      "纽": 6177,
      "线": 6178,
      "练": 6179,
      "组": 6180,
      "细": 6181,
      "织": 6182,
      "终": 6183,
      "绍": 6184,
      "绎": 6185,
      "经": 6186,
      "绑": 6187,
      "结": 6188,
      "绕": 6189,
      "绘": 6190,
      "给": 6191,
      "络": 6192,
      "绝": 6193,
      "统": 6194,
      "绣": 6195,
      "继": 6196,
      "绩": 6197,
      "绪": 6198,
      "续": 6199,
      "绳": 6200,
      "维": 6201,
      "绵": 6202,
      "综": 6203,
      "绿": 6204,
      "缀": 6205,
      "缎": 6206,
      "缓": 6207,
      "编": 6208,
      "缘": 6209,
      "缩": 6210,
      "缰": 6211,
      "缺": 6212,
      "罐": 6213,
      "网": 6214,
      "罕": 6215,
      "罗": 6216,
      "罚": 6217,
      "罩": 6218,
      "罪": 6219,
      "置": 6220,
      "罰": 6221,
      "署": 6222,
      "羅": 6223,
      "羊": 6224,
      "美": 6225,
      "羟": 6226,
      "羡": 6227,
      "群": 6228,
      "羧": 6229,
      "義": 6230,
      "羽": 6231,
      "翁": 6232,
      "翅": 6233,
      "翌": 6234,
      "習": 6235,
      "翟": 6236,
      "翠": 6237,
      "翰": 6238,
      "翻": 6239,
      "翼": 6240,
      "耀": 6241,
      "老": 6242,
      "考": 6243,
      "者": 6244,
      "而": 6245,
      "耍": 6246,
      "耐": 6247,
      "耕": 6248,
      "耗": 6249,
      "耳": 6250,
      "耶": 6251,
      "耻": 6252,
      "聊": 6253,
      "职": 6254,
      "联": 6255,
      "聖": 6256,
      "聘": 6257,
      "聚": 6258,
      "聞": 6259,
      "聪": 6260,
      "聯": 6261,
      "聴": 6262,
      "職": 6263,
      "聽": 6264,
      "肃": 6265,
      "肉": 6266,
      "肌": 6267,
      "肖": 6268,
      "肝": 6269,
      "肠": 6270,
      "股": 6271,
      "肢": 6272,
      "肥": 6273,
      "肩": 6274,
      "肪": 6275,
      "肯": 6276,
      "育": 6277,
      "肸": 6278,
      "肺": 6279,
      "肿": 6280,
      "胃": 6281,
      "胆": 6282,
      "背": 6283,
      "胎": 6284,
      "胖": 6285,
      "胜": 6286,
      "胞": 6287,
      "胫": 6288,
      "胱": 6289,
      "胸": 6290,
      "胺": 6291,
      "能": 6292,
      "脂": 6293,
      "脆": 6294,
      "脏": 6295,
      "脑": 6296,
      "脚": 6297,
      "脱": 6298,
      "脸": 6299,
      "脾": 6300,
      "腎": 6301,
      "腐": 6302,
      "腓": 6303,
      "腕": 6304,
      "腦": 6305,
      "腫": 6306,
      "腰": 6307,
      "腳": 6308,
      "腸": 6309,
      "腹": 6310,
      "腺": 6311,
      "腾": 6312,
      "腿": 6313,
      "膀": 6314,
      "膜": 6315,
      "臂": 6316,
      "臟": 6317,
      "臨": 6318,
      "自": 6319,
      "臭": 6320,
      "至": 6321,
      "致": 6322,
      "臺": 6323,
      "與": 6324,
      "興": 6325,
      "舊": 6326,
      "舒": 6327,
      "舞": 6328,
      "航": 6329,
      "般": 6330,
      "舵": 6331,
      "船": 6332,
      "良": 6333,
      "艰": 6334,
      "色": 6335,
      "艺": 6336,
      "艾": 6337,
      "节": 6338,
      "芒": 6339,
      "芝": 6340,
      "花": 6341,
      "芳": 6342,
      "苊": 6343,
      "苏": 6344,
      "若": 6345,
      "苦": 6346,
      "苯": 6347,
      "英": 6348,
      "范": 6349,
      "茨": 6350,
      "茶": 6351,
      "荆": 6352,
      "草": 6353,
      "荐": 6354,
      "荒": 6355,
      "荘": 6356,
      "荣": 6357,
      "荧": 6358,
      "药": 6359,
      "荷": 6360,
      "莉": 6361,
      "莎": 6362,
      "莓": 6363,
      "莫": 6364,
      "莱": 6365,
      "获": 6366,
      "莹": 6367,
      "菁": 6368,
      "菇": 6369,
      "菌": 6370,
      "菜": 6371,
      "菩": 6372,
      "菱": 6373,
      "菲": 6374,
      "萘": 6375,
      "营": 6376,
      "萨": 6377,
      "落": 6378,
      "葉": 6379,
      "著": 6380,
      "葛": 6381,
      "葬": 6382,
      "葱": 6383,
      "蒂": 6384,
      "蒙": 6385,
      "蓉": 6386,
      "蓋": 6387,
      "蓝": 6388,
      "蓮": 6389,
      "蔓": 6390,
      "蔡": 6391,
      "蔬": 6392,
      "蔵": 6393,
      "蔽": 6394,
      "薄": 6395,
      "薬": 6396,
      "藏": 6397,
      "藕": 6398,
      "藥": 6399,
      "藩": 6400,
      "藪": 6401,
      "蘑": 6402,
      "虎": 6403,
      "虑": 6404,
      "處": 6405,
      "虚": 6406,
      "虛": 6407,
      "號": 6408,
      "虫": 6409,
      "虽": 6410,
      "蚁": 6411,
      "蛀": 6412,
      "蛇": 6413,
      "蛋": 6414,
      "蛍": 6415,
      "蛟": 6416,
      "蜡": 6417,
      "蜱": 6418,
      "蜴": 6419,
      "融": 6420,
      "螺": 6421,
      "蟲": 6422,
      "蠕": 6423,
      "血": 6424,
      "衆": 6425,
      "行": 6426,
      "術": 6427,
      "衔": 6428,
      "街": 6429,
      "衛": 6430,
      "衝": 6431,
      "衡": 6432,
      "补": 6433,
      "表": 6434,
      "袂": 6435,
      "袜": 6436,
      "被": 6437,
      "裁": 6438,
      "装": 6439,
      "裕": 6440,
      "裙": 6441,
      "裝": 6442,
      "裡": 6443,
      "裨": 6444,
      "製": 6445,
      "複": 6446,
      "西": 6447,
      "要": 6448,
      "覆": 6449,
      "見": 6450,
      "規": 6451,
      "視": 6452,
      "覚": 6453,
      "覧": 6454,
      "親": 6455,
      "観": 6456,
      "覺": 6457,
      "觀": 6458,
      "见": 6459,
      "观": 6460,
      "规": 6461,
      "视": 6462,
      "览": 6463,
      "觉": 6464,
      "觑": 6465,
      "角": 6466,
      "解": 6467,
      "触": 6468,
      "觸": 6469,
      "言": 6470,
      "訂": 6471,
      "計": 6472,
      "訊": 6473,
      "討": 6474,
      "託": 6475,
      "記": 6476,
      "訟": 6477,
      "設": 6478,
      "許": 6479,
      "訳": 6480,
      "訴": 6481,
      "診": 6482,
      "証": 6483,
      "詐": 6484,
      "詔": 6485,
      "評": 6486,
      "詞": 6487,
      "詢": 6488,
      "試": 6489,
      "詩": 6490,
      "話": 6491,
      "該": 6492,
      "詳": 6493,
      "詹": 6494,
      "誉": 6495,
      "認": 6496,
      "誓": 6497,
      "誕": 6498,
      "誘": 6499,
      "語": 6500,
      "誤": 6501,
      "說": 6502,
      "説": 6503,
      "読": 6504,
      "誰": 6505,
      "課": 6506,
      "調": 6507,
      "談": 6508,
      "請": 6509,
      "論": 6510,
      "諮": 6511,
      "諸": 6512,
      "講": 6513,
      "謝": 6514,
      "證": 6515,
      "識": 6516,
      "警": 6517,
      "譯": 6518,
      "議": 6519,
      "護": 6520,
      "讀": 6521,
      "變": 6522,
      "讓": 6523,
      "计": 6524,
      "订": 6525,
      "认": 6526,
      "讨": 6527,
      "让": 6528,
      "训": 6529,
      "议": 6530,
      "讯": 6531,
      "记": 6532,
      "讲": 6533,
      "许": 6534,
      "论": 6535,
      "讼": 6536,
      "设": 6537,
      "访": 6538,
      "证": 6539,
      "评": 6540,
      "诅": 6541,
      "识": 6542,
      "诉": 6543,
      "诊": 6544,
      "词": 6545,
      "译": 6546,
      "试": 6547,
      "诗": 6548,
      "诚": 6549,
      "话": 6550,
      "诞": 6551,
      "诠": 6552,
      "诡": 6553,
      "询": 6554,
      "该": 6555,
      "详": 6556,
      "语": 6557,
      "误": 6558,
      "诱": 6559,
      "说": 6560,
      "请": 6561,
      "诸": 6562,
      "诺": 6563,
      "读": 6564,
      "课": 6565,
      "谁": 6566,
      "调": 6567,
      "谋": 6568,
      "谓": 6569,
      "谚": 6570,
      "谜": 6571,
      "谢": 6572,
      "谧": 6573,
      "谱": 6574,
      "豆": 6575,
      "豊": 6576,
      "象": 6577,
      "豪": 6578,
      "豫": 6579,
      "貌": 6580,
      "負": 6581,
      "財": 6582,
      "貢": 6583,
      "貧": 6584,
      "販": 6585,
      "責": 6586,
      "貴": 6587,
      "買": 6588,
      "費": 6589,
      "資": 6590,
      "賠": 6591,
      "賦": 6592,
      "質": 6593,
      "賴": 6594,
      "賽": 6595,
      "负": 6596,
      "财": 6597,
      "责": 6598,
      "败": 6599,
      "账": 6600,
      "货": 6601,
      "质": 6602,
      "贪": 6603,
      "贫": 6604,
      "贬": 6605,
      "购": 6606,
      "贯": 6607,
      "贴": 6608,
      "贵": 6609,
      "费": 6610,
      "贾": 6611,
      "资": 6612,
      "赋": 6613,
      "赏": 6614,
      "赖": 6615,
      "赚": 6616,
      "赛": 6617,
      "赞": 6618,
      "赠": 6619,
      "赣": 6620,
      "赤": 6621,
      "赫": 6622,
      "走": 6623,
      "赵": 6624,
      "赶": 6625,
      "起": 6626,
      "趁": 6627,
      "超": 6628,
      "越": 6629,
      "趋": 6630,
      "趣": 6631,
      "趨": 6632,
      "足": 6633,
      "跃": 6634,
      "跌": 6635,
      "跑": 6636,
      "距": 6637,
      "跟": 6638,
      "路": 6639,
      "跳": 6640,
      "践": 6641,
      "踏": 6642,
      "踪": 6643,
      "蹈": 6644,
      "躁": 6645,
      "躍": 6646,
      "身": 6647,
      "車": 6648,
      "軟": 6649,
      "転": 6650,
      "軸": 6651,
      "軽": 6652,
      "較": 6653,
      "載": 6654,
      "輕": 6655,
      "輛": 6656,
      "輩": 6657,
      "輯": 6658,
      "輸": 6659,
      "轉": 6660,
      "车": 6661,
      "轨": 6662,
      "转": 6663,
      "轮": 6664,
      "软": 6665,
      "轰": 6666,
      "轴": 6667,
      "轻": 6668,
      "载": 6669,
      "较": 6670,
      "辅": 6671,
      "辆": 6672,
      "辑": 6673,
      "输": 6674,
      "辖": 6675,
      "辞": 6676,
      "辣": 6677,
      "辦": 6678,
      "辨": 6679,
      "辩": 6680,
      "边": 6681,
      "込": 6682,
      "辽": 6683,
      "达": 6684,
      "辿": 6685,
      "迁": 6686,
      "迅": 6687,
      "过": 6688,
      "迈": 6689,
      "迎": 6690,
      "运": 6691,
      "近": 6692,
      "返": 6693,
      "还": 6694,
      "这": 6695,
      "进": 6696,
      "远": 6697,
      "连": 6698,
      "迟": 6699,
      "迪": 6700,
      "迫": 6701,
      "迭": 6702,
      "述": 6703,
      "迴": 6704,
      "迷": 6705,
      "追": 6706,
      "退": 6707,
      "送": 6708,
      "适": 6709,
      "逃": 6710,
      "选": 6711,
      "透": 6712,
      "逐": 6713,
      "递": 6714,
      "途": 6715,
      "逗": 6716,
      "這": 6717,
      "通": 6718,
      "逝": 6719,
      "速": 6720,
      "造": 6721,
      "連": 6722,
      "逮": 6723,
      "週": 6724,
      "進": 6725,
      "逸": 6726,
      "逻": 6727,
      "遅": 6728,
      "遇": 6729,
      "遊": 6730,
      "運": 6731,
      "遍": 6732,
      "過": 6733,
      "道": 6734,
      "達": 6735,
      "違": 6736,
      "遗": 6737,
      "遞": 6738,
      "遠": 6739,
      "遥": 6740,
      "適": 6741,
      "遭": 6742,
      "遮": 6743,
      "遲": 6744,
      "遴": 6745,
      "遵": 6746,
      "遷": 6747,
      "選": 6748,
      "遺": 6749,
      "避": 6750,
      "邀": 6751,
      "還": 6752,
      "邊": 6753,
      "邋": 6754,
      "邏": 6755,
      "那": 6756,
      "邦": 6757,
      "邪": 6758,
      "邮": 6759,
      "邻": 6760,
      "郊": 6761,
      "郎": 6762,
      "郑": 6763,
      "郡": 6764,
      "部": 6765,
      "郭": 6766,
      "郵": 6767,
      "都": 6768,
      "鄂": 6769,
      "鄉": 6770,
      "配": 6771,
      "酐": 6772,
      "酒": 6773,
      "酥": 6774,
      "酮": 6775,
      "酯": 6776,
      "酰": 6777,
      "酵": 6778,
      "酶": 6779,
      "酷": 6780,
      "酸": 6781,
      "醇": 6782,
      "醉": 6783,
      "醒": 6784,
      "醜": 6785,
      "醣": 6786,
      "醫": 6787,
      "采": 6788,
      "釈": 6789,
      "释": 6790,
      "釋": 6791,
      "里": 6792,
      "重": 6793,
      "野": 6794,
      "量": 6795,
      "金": 6796,
      "釘": 6797,
      "鈴": 6798,
      "鉄": 6799,
      "鉛": 6800,
      "鉴": 6801,
      "銃": 6802,
      "銭": 6803,
      "銷": 6804,
      "鋪": 6805,
      "錄": 6806,
      "錢": 6807,
      "錯": 6808,
      "録": 6809,
      "鍵": 6810,
      "鏡": 6811,
      "鐘": 6812,
      "针": 6813,
      "钙": 6814,
      "钟": 6815,
      "钠": 6816,
      "钢": 6817,
      "钥": 6818,
      "钩": 6819,
      "钮": 6820,
      "钱": 6821,
      "铁": 6822,
      "银": 6823,
      "铺": 6824,
      "链": 6825,
      "销": 6826,
      "锁": 6827,
      "锂": 6828,
      "锅": 6829,
      "锋": 6830,
      "锐": 6831,
      "错": 6832,
      "锚": 6833,
      "锦": 6834,
      "键": 6835,
      "锻": 6836,
      "镇": 6837,
      "镉": 6838,
      "镑": 6839,
      "镜": 6840,
      "長": 6841,
      "长": 6842,
      "門": 6843,
      "閃": 6844,
      "閉": 6845,
      "開": 6846,
      "間": 6847,
      "関": 6848,
      "閱": 6849,
      "闇": 6850,
      "關": 6851,
      "门": 6852,
      "闪": 6853,
      "闭": 6854,
      "问": 6855,
      "闲": 6856,
      "间": 6857,
      "闵": 6858,
      "闻": 6859,
      "闽": 6860,
      "阁": 6861,
      "阅": 6862,
      "阈": 6863,
      "阔": 6864,
      "队": 6865,
      "防": 6866,
      "阳": 6867,
      "阴": 6868,
      "阵": 6869,
      "阶": 6870,
      "阻": 6871,
      "阿": 6872,
      "附": 6873,
      "际": 6874,
      "陆": 6875,
      "陈": 6876,
      "降": 6877,
      "限": 6878,
      "陕": 6879,
      "院": 6880,
      "陣": 6881,
      "除": 6882,
      "险": 6883,
      "陪": 6884,
      "陵": 6885,
      "陶": 6886,
      "陸": 6887,
      "険": 6888,
      "陽": 6889,
      "隆": 6890,
      "隊": 6891,
      "階": 6892,
      "随": 6893,
      "隐": 6894,
      "隔": 6895,
      "隙": 6896,
      "際": 6897,
      "障": 6898,
      "隠": 6899,
      "隣": 6900,
      "隨": 6901,
      "險": 6902,
      "隱": 6903,
      "隷": 6904,
      "难": 6905,
      "雁": 6906,
      "雄": 6907,
      "集": 6908,
      "雑": 6909,
      "雕": 6910,
      "雙": 6911,
      "雜": 6912,
      "雞": 6913,
      "離": 6914,
      "難": 6915,
      "雨": 6916,
      "雪": 6917,
      "雰": 6918,
      "零": 6919,
      "雷": 6920,
      "電": 6921,
      "雾": 6922,
      "需": 6923,
      "震": 6924,
      "霍": 6925,
      "霜": 6926,
      "霞": 6927,
      "露": 6928,
      "霸": 6929,
      "靈": 6930,
      "青": 6931,
      "静": 6932,
      "非": 6933,
      "靠": 6934,
      "靡": 6935,
      "面": 6936,
      "革": 6937,
      "韦": 6938,
      "韩": 6939,
      "音": 6940,
      "響": 6941,
      "頁": 6942,
      "頂": 6943,
      "項": 6944,
      "順": 6945,
      "須": 6946,
      "預": 6947,
      "頑": 6948,
      "頓": 6949,
      "領": 6950,
      "頭": 6951,
      "頻": 6952,
      "頼": 6953,
      "題": 6954,
      "額": 6955,
      "顏": 6956,
      "顔": 6957,
      "願": 6958,
      "類": 6959,
      "顧": 6960,
      "顯": 6961,
      "页": 6962,
      "顶": 6963,
      "项": 6964,
      "顺": 6965,
      "须": 6966,
      "顾": 6967,
      "顿": 6968,
      "颂": 6969,
      "预": 6970,
      "领": 6971,
      "频": 6972,
      "题": 6973,
      "颜": 6974,
      "额": 6975,
      "風": 6976,
      "飄": 6977,
      "风": 6978,
      "飘": 6979,
      "飙": 6980,
      "飛": 6981,
      "飞": 6982,
      "食": 6983,
      "飯": 6984,
      "飲": 6985,
      "養": 6986,
      "餌": 6987,
      "餐": 6988,
      "餘": 6989,
      "館": 6990,
      "饭": 6991,
      "饮": 6992,
      "饰": 6993,
      "饱": 6994,
      "饶": 6995,
      "饼": 6996,
      "馆": 6997,
      "馈": 6998,
      "首": 6999,
      "香": 7000,
      "馬": 7001,
      "駅": 7002,
      "駆": 7003,
      "駐": 7004,
      "騎": 7005,
      "騒": 7006,
      "験": 7007,
      "騙": 7008,
      "驗": 7009,
      "驚": 7010,
      "马": 7011,
      "驰": 7012,
      "驱": 7013,
      "驶": 7014,
      "驻": 7015,
      "驾": 7016,
      "验": 7017,
      "骑": 7018,
      "骗": 7019,
      "骤": 7020,
      "骨": 7021,
      "骰": 7022,
      "骷": 7023,
      "髅": 7024,
      "體": 7025,
      "高": 7026,
      "鬼": 7027,
      "魂": 7028,
      "魅": 7029,
      "魔": 7030,
      "魚": 7031,
      "鮮": 7032,
      "鱼": 7033,
      "鲁": 7034,
      "鳜": 7035,
      "鳥": 7036,
      "鶏": 7037,
      "鸡": 7038,
      "鸣": 7039,
      "鸭": 7040,
      "鹏": 7041,
      "鹤": 7042,
      "鹹": 7043,
      "鹽": 7044,
      "麓": 7045,
      "麗": 7046,
      "麦": 7047,
      "麻": 7048,
      "麼": 7049,
      "黄": 7050,
      "黎": 7051,
      "黑": 7052,
      "黒": 7053,
      "黔": 7054,
      "默": 7055,
      "點": 7056,
      "鼓": 7057,
      "鼠": 7058,
      "鼻": 7059,
      "齐": 7060,
      "齡": 7061,
      "齢": 7062,
      "龂": 7063,
      "龄": 7064,
      "龙": 7065,
      "ꉫ": 7066,
      "ꉬ": 7067,
      "ꓘ": 7068,
      "꘍": 7069,
      "Ꙗ": 7070,
      "ꙗ": 7071,
      "꜈": 7072,
      "꜉": 7073,
      "꜊": 7074,
      "꜋": 7075,
      "꜌": 7076,
      "꜍": 7077,
      "꜎": 7078,
      "꜏": 7079,
      "꜐": 7080,
      "꜑": 7081,
      "꜒": 7082,
      "꜓": 7083,
      "꜔": 7084,
      "꜕": 7085,
      "꜖": 7086,
      "ꜛ": 7087,
      "ꜜ": 7088,
      "ꜝ": 7089,
      "ꜞ": 7090,
      "ꜟ": 7091,
      "Ꜣ": 7092,
      "ꜣ": 7093,
      "Ꜥ": 7094,
      "ꜥ": 7095,
      "Ꜧ": 7096,
      "ꜧ": 7097,
      "꞉": 7098,
      "꞊": 7099,
      "Ꞌ": 7100,
      "ꞌ": 7101,
      "Ɥ": 7102,
      "ꞎ": 7103,
      "Ꞑ": 7104,
      "ꞑ": 7105,
      "Ɦ": 7106,
      "ꟸ": 7107,
      "ꟹ": 7108,
      "가": 7109,
      "각": 7110,
      "간": 7111,
      "감": 7112,
      "갑": 7113,
      "값": 7114,
      "갔": 7115,
      "강": 7116,
      "같": 7117,
      "개": 7118,
      "객": 7119,
      "거": 7120,
      "건": 7121,
      "걸": 7122,
      "것": 7123,
      "게": 7124,
      "겠": 7125,
      "겨": 7126,
      "격": 7127,
      "겪": 7128,
      "결": 7129,
      "경": 7130,
      "계": 7131,
      "고": 7132,
      "곱": 7133,
      "곳": 7134,
      "공": 7135,
      "과": 7136,
      "관": 7137,
      "교": 7138,
      "구": 7139,
      "국": 7140,
      "권": 7141,
      "규": 7142,
      "그": 7143,
      "근": 7144,
      "글": 7145,
      "금": 7146,
      "급": 7147,
      "기": 7148,
      "긴": 7149,
      "김": 7150,
      "깊": 7151,
      "까": 7152,
      "깐": 7153,
      "깔": 7154,
      "깝": 7155,
      "꺼": 7156,
      "께": 7157,
      "꼼": 7158,
      "꿀": 7159,
      "뀌": 7160,
      "끄": 7161,
      "끊": 7162,
      "끝": 7163,
      "나": 7164,
      "남": 7165,
      "내": 7166,
      "낸": 7167,
      "넌": 7168,
      "넘": 7169,
      "네": 7170,
      "년": 7171,
      "녕": 7172,
      "노": 7173,
      "높": 7174,
      "누": 7175,
      "뉘": 7176,
      "뉴": 7177,
      "느": 7178,
      "는": 7179,
      "늘": 7180,
      "능": 7181,
      "니": 7182,
      "닌": 7183,
      "님": 7184,
      "닙": 7185,
      "다": 7186,
      "단": 7187,
      "달": 7188,
      "담": 7189,
      "답": 7190,
      "당": 7191,
      "닿": 7192,
      "대": 7193,
      "더": 7194,
      "던": 7195,
      "덧": 7196,
      "데": 7197,
      "도": 7198,
      "독": 7199,
      "돌": 7200,
      "동": 7201,
      "되": 7202,
      "된": 7203,
      "될": 7204,
      "됨": 7205,
      "됩": 7206,
      "두": 7207,
      "듈": 7208,
      "드": 7209,
      "든": 7210,
      "들": 7211,
      "등": 7212,
      "디": 7213,
      "딧": 7214,
      "딩": 7215,
      "따": 7216,
      "때": 7217,
      "떠": 7218,
      "떤": 7219,
      "떻": 7220,
      "또": 7221,
      "라": 7222,
      "락": 7223,
      "란": 7224,
      "람": 7225,
      "랍": 7226,
      "랑": 7227,
      "래": 7228,
      "랙": 7229,
      "랫": 7230,
      "러": 7231,
      "럼": 7232,
      "럽": 7233,
      "렇": 7234,
      "레": 7235,
      "려": 7236,
      "력": 7237,
      "련": 7238,
      "렵": 7239,
      "렸": 7240,
      "례": 7241,
      "로": 7242,
      "록": 7243,
      "론": 7244,
      "롬": 7245,
      "롭": 7246,
      "뢰": 7247,
      "료": 7248,
      "루": 7249,
      "룬": 7250,
      "룰": 7251,
      "르": 7252,
      "른": 7253,
      "를": 7254,
      "름": 7255,
      "릅": 7256,
      "리": 7257,
      "릭": 7258,
      "린": 7259,
      "릴": 7260,
      "림": 7261,
      "립": 7262,
      "링": 7263,
      "마": 7264,
      "막": 7265,
      "만": 7266,
      "많": 7267,
      "말": 7268,
      "망": 7269,
      "맞": 7270,
      "맡": 7271,
      "매": 7272,
      "맥": 7273,
      "맨": 7274,
      "메": 7275,
      "며": 7276,
      "면": 7277,
      "명": 7278,
      "몇": 7279,
      "모": 7280,
      "목": 7281,
      "못": 7282,
      "묘": 7283,
      "무": 7284,
      "문": 7285,
      "물": 7286,
      "므": 7287,
      "미": 7288,
      "민": 7289,
      "믿": 7290,
      "밀": 7291,
      "및": 7292,
      "바": 7293,
      "밖": 7294,
      "반": 7295,
      "받": 7296,
      "발": 7297,
      "방": 7298,
      "배": 7299,
      "백": 7300,
      "버": 7301,
      "번": 7302,
      "벌": 7303,
      "법": 7304,
      "벤": 7305,
      "변": 7306,
      "별": 7307,
      "병": 7308,
      "보": 7309,
      "복": 7310,
      "볼": 7311,
      "부": 7312,
      "북": 7313,
      "분": 7314,
      "불": 7315,
      "뷰": 7316,
      "브": 7317,
      "블": 7318,
      "비": 7319,
      "빠": 7320,
      "빵": 7321,
      "사": 7322,
      "산": 7323,
      "살": 7324,
      "삶": 7325,
      "삽": 7326,
      "상": 7327,
      "새": 7328,
      "색": 7329,
      "생": 7330,
      "샷": 7331,
      "서": 7332,
      "석": 7333,
      "선": 7334,
      "설": 7335,
      "섭": 7336,
      "성": 7337,
      "세": 7338,
      "센": 7339,
      "션": 7340,
      "셨": 7341,
      "소": 7342,
      "속": 7343,
      "송": 7344,
      "수": 7345,
      "숙": 7346,
      "술": 7347,
      "쉽": 7348,
      "스": 7349,
      "습": 7350,
      "슷": 7351,
      "승": 7352,
      "시": 7353,
      "식": 7354,
      "신": 7355,
      "실": 7356,
      "십": 7357,
      "싶": 7358,
      "싸": 7359,
      "쌉": 7360,
      "쏟": 7361,
      "쓰": 7362,
      "쓴": 7363,
      "씀": 7364,
      "씌": 7365,
      "씨": 7366,
      "아": 7367,
      "안": 7368,
      "않": 7369,
      "알": 7370,
      "았": 7371,
      "앙": 7372,
      "앞": 7373,
      "애": 7374,
      "앤": 7375,
      "앨": 7376,
      "앱": 7377,
      "야": 7378,
      "약": 7379,
      "양": 7380,
      "어": 7381,
      "언": 7382,
      "얻": 7383,
      "얼": 7384,
      "엄": 7385,
      "업": 7386,
      "없": 7387,
      "엇": 7388,
      "었": 7389,
      "에": 7390,
      "엔": 7391,
      "엣": 7392,
      "여": 7393,
      "역": 7394,
      "연": 7395,
      "열": 7396,
      "였": 7397,
      "영": 7398,
      "예": 7399,
      "오": 7400,
      "옥": 7401,
      "올": 7402,
      "옵": 7403,
      "와": 7404,
      "완": 7405,
      "왕": 7406,
      "요": 7407,
      "용": 7408,
      "우": 7409,
      "운": 7410,
      "움": 7411,
      "워": 7412,
      "원": 7413,
      "월": 7414,
      "위": 7415,
      "유": 7416,
      "육": 7417,
      "율": 7418,
      "으": 7419,
      "은": 7420,
      "을": 7421,
      "음": 7422,
      "응": 7423,
      "의": 7424,
      "이": 7425,
      "인": 7426,
      "일": 7427,
      "읽": 7428,
      "임": 7429,
      "입": 7430,
      "있": 7431,
      "자": 7432,
      "작": 7433,
      "잘": 7434,
      "잠": 7435,
      "잡": 7436,
      "장": 7437,
      "재": 7438,
      "저": 7439,
      "적": 7440,
      "전": 7441,
      "절": 7442,
      "점": 7443,
      "접": 7444,
      "정": 7445,
      "제": 7446,
      "젤": 7447,
      "젯": 7448,
      "져": 7449,
      "조": 7450,
      "족": 7451,
      "존": 7452,
      "좀": 7453,
      "종": 7454,
      "좋": 7455,
      "좌": 7456,
      "죄": 7457,
      "주": 7458,
      "준": 7459,
      "줄": 7460,
      "중": 7461,
      "줘": 7462,
      "즈": 7463,
      "즉": 7464,
      "증": 7465,
      "지": 7466,
      "직": 7467,
      "진": 7468,
      "질": 7469,
      "집": 7470,
      "째": 7471,
      "차": 7472,
      "찬": 7473,
      "참": 7474,
      "찾": 7475,
      "채": 7476,
      "책": 7477,
      "처": 7478,
      "천": 7479,
      "청": 7480,
      "체": 7481,
      "초": 7482,
      "최": 7483,
      "추": 7484,
      "축": 7485,
      "춘": 7486,
      "출": 7487,
      "충": 7488,
      "췄": 7489,
      "취": 7490,
      "치": 7491,
      "칙": 7492,
      "친": 7493,
      "카": 7494,
      "캔": 7495,
      "캘": 7496,
      "캠": 7497,
      "컨": 7498,
      "컴": 7499,
      "케": 7500,
      "켜": 7501,
      "코": 7502,
      "콜": 7503,
      "크": 7504,
      "큰": 7505,
      "클": 7506,
      "킬": 7507,
      "타": 7508,
      "탈": 7509,
      "태": 7510,
      "택": 7511,
      "터": 7512,
      "테": 7513,
      "텍": 7514,
      "텐": 7515,
      "템": 7516,
      "통": 7517,
      "퇴": 7518,
      "투": 7519,
      "튜": 7520,
      "트": 7521,
      "특": 7522,
      "튼": 7523,
      "티": 7524,
      "팀": 7525,
      "팁": 7526,
      "팅": 7527,
      "파": 7528,
      "판": 7529,
      "패": 7530,
      "펌": 7531,
      "페": 7532,
      "펜": 7533,
      "펴": 7534,
      "펼": 7535,
      "평": 7536,
      "포": 7537,
      "폼": 7538,
      "표": 7539,
      "품": 7540,
      "풍": 7541,
      "퓨": 7542,
      "프": 7543,
      "플": 7544,
      "피": 7545,
      "픽": 7546,
      "필": 7547,
      "하": 7548,
      "학": 7549,
      "한": 7550,
      "할": 7551,
      "함": 7552,
      "합": 7553,
      "항": 7554,
      "해": 7555,
      "했": 7556,
      "행": 7557,
      "향": 7558,
      "험": 7559,
      "현": 7560,
      "협": 7561,
      "형": 7562,
      "호": 7563,
      "혹": 7564,
      "혼": 7565,
      "홈": 7566,
      "화": 7567,
      "확": 7568,
      "활": 7569,
      "황": 7570,
      "회": 7571,
      "효": 7572,
      "후": 7573,
      "훈": 7574,
      "흥": 7575,
      "희": 7576,
      "히": 7577,
      "힘": 7578,
      "": 7579,
      "": 7580,
      "": 7581,
      "": 7582,
      "": 7583,
      "": 7584,
      "": 7585,
      "": 7586,
      "": 7587,
      "": 7588,
      "": 7589,
      "": 7590,
      "": 7591,
      "": 7592,
      "": 7593,
      "": 7594,
      "": 7595,
      "": 7596,
      "": 7597,
      "": 7598,
      "": 7599,
      "": 7600,
      "": 7601,
      "": 7602,
      "": 7603,
      "": 7604,
      "": 7605,
      "": 7606,
      "": 7607,
      "": 7608,
      "": 7609,
      "": 7610,
      "": 7611,
      "": 7612,
      "ﬀ": 7613,
      "ﬁ": 7614,
      "ﬂ": 7615,
      "ﬃ": 7616,
      "ﭒ": 7617,
      "ﭓ": 7618,
      "ﭔ": 7619,
      "ﭕ": 7620,
      "ﭖ": 7621,
      "ﭗ": 7622,
      "ﭘ": 7623,
      "ﭙ": 7624,
      "ﭚ": 7625,
      "ﭛ": 7626,
      "ﭜ": 7627,
      "ﭝ": 7628,
      "ﭞ": 7629,
      "ﭟ": 7630,
      "ﭠ": 7631,
      "ﭡ": 7632,
      "ﭢ": 7633,
      "ﭣ": 7634,
      "ﭤ": 7635,
      "ﭥ": 7636,
      "ﭦ": 7637,
      "ﭧ": 7638,
      "ﭨ": 7639,
      "ﭩ": 7640,
      "ﭪ": 7641,
      "ﭫ": 7642,
      "ﭬ": 7643,
      "ﭭ": 7644,
      "ﭮ": 7645,
      "ﭯ": 7646,
      "ﭰ": 7647,
      "ﭱ": 7648,
      "ﭲ": 7649,
      "ﭳ": 7650,
      "ﭴ": 7651,
      "ﭵ": 7652,
      "ﭶ": 7653,
      "ﭷ": 7654,
      "ﭸ": 7655,
      "ﭹ": 7656,
      "ﭺ": 7657,
      "ﭻ": 7658,
      "ﭼ": 7659,
      "ﭽ": 7660,
      "ﭾ": 7661,
      "ﭿ": 7662,
      "ﮀ": 7663,
      "ﮁ": 7664,
      "ﮊ": 7665,
      "ﮋ": 7666,
      "ﮌ": 7667,
      "ﮍ": 7668,
      "ﮎ": 7669,
      "ﮏ": 7670,
      "ﮐ": 7671,
      "ﮑ": 7672,
      "ﮒ": 7673,
      "ﮓ": 7674,
      "ﮔ": 7675,
      "ﮕ": 7676,
      "ﮞ": 7677,
      "ﮟ": 7678,
      "ﮪ": 7679,
      "ﮫ": 7680,
      "ﮬ": 7681,
      "ﮭ": 7682,
      "ﯨ": 7683,
      "ﯩ": 7684,
      "ﯼ": 7685,
      "ﯽ": 7686,
      "ﯾ": 7687,
      "ﯿ": 7688,
      "️": 7689,
      "﹀": 7690,
      "﹕": 7691,
      "ﹰ": 7692,
      "ﹱ": 7693,
      "ﹲ": 7694,
      "ﹳ": 7695,
      "ﹴ": 7696,
      "ﹶ": 7697,
      "ﹷ": 7698,
      "ﹸ": 7699,
      "ﹹ": 7700,
      "ﹺ": 7701,
      "ﹻ": 7702,
      "ﹼ": 7703,
      "ﹽ": 7704,
      "ﹾ": 7705,
      "ﹿ": 7706,
      "ﺀ": 7707,
      "ﺁ": 7708,
      "ﺂ": 7709,
      "ﺃ": 7710,
      "ﺄ": 7711,
      "ﺅ": 7712,
      "ﺆ": 7713,
      "ﺇ": 7714,
      "ﺈ": 7715,
      "ﺉ": 7716,
      "ﺊ": 7717,
      "ﺋ": 7718,
      "ﺌ": 7719,
      "ﺍ": 7720,
      "ﺎ": 7721,
      "ﺏ": 7722,
      "ﺐ": 7723,
      "ﺑ": 7724,
      "ﺒ": 7725,
      "ﺓ": 7726,
      "ﺔ": 7727,
      "ﺕ": 7728,
      "ﺖ": 7729,
      "ﺗ": 7730,
      "ﺘ": 7731,
      "ﺙ": 7732,
      "ﺚ": 7733,
      "ﺛ": 7734,
      "ﺜ": 7735,
      "ﺝ": 7736,
      "ﺞ": 7737,
      "ﺟ": 7738,
      "ﺠ": 7739,
      "ﺡ": 7740,
      "ﺢ": 7741,
      "ﺣ": 7742,
      "ﺤ": 7743,
      "ﺥ": 7744,
      "ﺦ": 7745,
      "ﺧ": 7746,
      "ﺨ": 7747,
      "ﺩ": 7748,
      "ﺪ": 7749,
      "ﺫ": 7750,
      "ﺬ": 7751,
      "ﺭ": 7752,
      "ﺮ": 7753,
      "ﺯ": 7754,
      "ﺰ": 7755,
      "ﺱ": 7756,
      "ﺲ": 7757,
      "ﺳ": 7758,
      "ﺴ": 7759,
      "ﺵ": 7760,
      "ﺶ": 7761,
      "ﺷ": 7762,
      "ﺸ": 7763,
      "ﺹ": 7764,
      "ﺺ": 7765,
      "ﺻ": 7766,
      "ﺼ": 7767,
      "ﺽ": 7768,
      "ﺾ": 7769,
      "ﺿ": 7770,
      "ﻀ": 7771,
      "ﻁ": 7772,
      "ﻂ": 7773,
      "ﻃ": 7774,
      "ﻄ": 7775,
      "ﻅ": 7776,
      "ﻆ": 7777,
      "ﻇ": 7778,
      "ﻈ": 7779,
      "ﻉ": 7780,
      "ﻊ": 7781,
      "ﻋ": 7782,
      "ﻌ": 7783,
      "ﻍ": 7784,
      "ﻎ": 7785,
      "ﻏ": 7786,
      "ﻐ": 7787,
      "ﻑ": 7788,
      "ﻒ": 7789,
      "ﻓ": 7790,
      "ﻔ": 7791,
      "ﻕ": 7792,
      "ﻖ": 7793,
      "ﻗ": 7794,
      "ﻘ": 7795,
      "ﻙ": 7796,
      "ﻚ": 7797,
      "ﻛ": 7798,
      "ﻜ": 7799,
      "ﻝ": 7800,
      "ﻞ": 7801,
      "ﻟ": 7802,
      "ﻠ": 7803,
      "ﻡ": 7804,
      "ﻢ": 7805,
      "ﻣ": 7806,
      "ﻤ": 7807,
      "ﻥ": 7808,
      "ﻦ": 7809,
      "ﻧ": 7810,
      "ﻨ": 7811,
      "ﻩ": 7812,
      "ﻪ": 7813,
      "ﻫ": 7814,
      "ﻬ": 7815,
      "ﻭ": 7816,
      "ﻮ": 7817,
      "ﻯ": 7818,
      "ﻰ": 7819,
      "ﻱ": 7820,
      "ﻲ": 7821,
      "ﻳ": 7822,
      "ﻴ": 7823,
      "ﻵ": 7824,
      "ﻶ": 7825,
      "ﻷ": 7826,
      "ﻸ": 7827,
      "ﻹ": 7828,
      "ﻺ": 7829,
      "ﻻ": 7830,
      "ﻼ": 7831,
      "﻿": 7832,
      "！": 7833,
      "＃": 7834,
      "＄": 7835,
      "％": 7836,
      "＆": 7837,
      "（": 7838,
      "）": 7839,
      "＊": 7840,
      "＋": 7841,
      "，": 7842,
      "－": 7843,
      "．": 7844,
      "／": 7845,
      "０": 7846,
      "１": 7847,
      "２": 7848,
      "３": 7849,
      "４": 7850,
      "５": 7851,
      "６": 7852,
      "７": 7853,
      "８": 7854,
      "９": 7855,
      "：": 7856,
      "；": 7857,
      "＜": 7858,
      "＝": 7859,
      "＞": 7860,
      "？": 7861,
      "＠": 7862,
      "Ａ": 7863,
      "Ｂ": 7864,
      "Ｃ": 7865,
      "Ｄ": 7866,
      "Ｅ": 7867,
      "Ｆ": 7868,
      "Ｇ": 7869,
      "Ｈ": 7870,
      "Ｉ": 7871,
      "Ｊ": 7872,
      "Ｋ": 7873,
      "Ｌ": 7874,
      "Ｍ": 7875,
      "Ｎ": 7876,
      "Ｏ": 7877,
      "Ｐ": 7878,
      "Ｑ": 7879,
      "Ｒ": 7880,
      "Ｓ": 7881,
      "Ｔ": 7882,
      "Ｕ": 7883,
      "Ｖ": 7884,
      "Ｗ": 7885,
      "Ｘ": 7886,
      "Ｙ": 7887,
      "Ｚ": 7888,
      "［": 7889,
      "＼": 7890,
      "］": 7891,
      "＾": 7892,
      "＿": 7893,
      "｀": 7894,
      "ａ": 7895,
      "ｂ": 7896,
      "ｃ": 7897,
      "ｄ": 7898,
      "ｅ": 7899,
      "ｆ": 7900,
      "ｇ": 7901,
      "ｈ": 7902,
      "ｉ": 7903,
      "ｊ": 7904,
      "ｋ": 7905,
      "ｌ": 7906,
      "ｍ": 7907,
      "ｎ": 7908,
      "ｏ": 7909,
      "ｐ": 7910,
      "ｑ": 7911,
      "ｒ": 7912,
      "ｓ": 7913,
      "ｔ": 7914,
      "ｕ": 7915,
      "ｖ": 7916,
      "ｗ": 7917,
      "ｘ": 7918,
      "ｙ": 7919,
      "ｚ": 7920,
      "｛": 7921,
      "｜": 7922,
      "｝": 7923,
      "～": 7924,
      "｡": 7925,
      "｢": 7926,
      "｣": 7927,
      "､": 7928,
      "･": 7929,
      "ｦ": 7930,
      "ｧ": 7931,
      "ｨ": 7932,
      "ｩ": 7933,
      "ｪ": 7934,
      "ｫ": 7935,
      "ｬ": 7936,
      "ｭ": 7937,
      "ｮ": 7938,
      "ｯ": 7939,
      "ｰ": 7940,
      "ｱ": 7941,
      "ｲ": 7942,
      "ｳ": 7943,
      "ｴ": 7944,
      "ｵ": 7945,
      "ｶ": 7946,
      "ｷ": 7947,
      "ｸ": 7948,
      "ｹ": 7949,
      "ｺ": 7950,
      "ｻ": 7951,
      "ｼ": 7952,
      "ｽ": 7953,
      "ｾ": 7954,
      "ｿ": 7955,
      "ﾀ": 7956,
      "ﾁ": 7957,
      "ﾂ": 7958,
      "ﾃ": 7959,
      "ﾄ": 7960,
      "ﾅ": 7961,
      "ﾆ": 7962,
      "ﾇ": 7963,
      "ﾈ": 7964,
      "ﾉ": 7965,
      "ﾊ": 7966,
      "ﾋ": 7967,
      "ﾌ": 7968,
      "ﾍ": 7969,
      "ﾎ": 7970,
      "ﾏ": 7971,
      "ﾐ": 7972,
      "ﾑ": 7973,
      "ﾒ": 7974,
      "ﾓ": 7975,
      "ﾔ": 7976,
      "ﾕ": 7977,
      "ﾖ": 7978,
      "ﾗ": 7979,
      "ﾘ": 7980,
      "ﾙ": 7981,
      "ﾚ": 7982,
      "ﾛ": 7983,
      "ﾜ": 7984,
      "ﾝ": 7985,
      "ﾞ": 7986,
      "ﾟ": 7987,
      "￣": 7988,
      "￥": 7989,
      "￹": 7990,
      "￺": 7991,
      "￻": 7992,
      "￼": 7993,
      "�": 7994,
      "𐎐": 7995,
      "𐦔": 7996,
      "𐦢": 7997,
      "𐦲": 7998,
      "𐦸": 7999,
      "𐧁": 8000,
      "𝐴": 8001,
      "𝑃": 8002,
      "𝑈": 8003,
      "𝑓": 8004,
      "𝑛": 8005,
      "𝑡": 8006,
      "𝑢": 8007,
      "𝑥": 8008,
      "𝒪": 8009,
      "𝔽": 8010,
      "𝕀": 8011,
      "𝕋": 8012,
      "𝕒": 8013,
      "𝕚": 8014,
      "𝕞": 8015,
      "𝕣": 8016,
      "𝚫": 8017,
      "𝛾": 8018,
      "𝜇": 8019,
      "𝜈": 8020,
      "𝜋": 8021,
      "𝜌": 8022,
      "𝜎": 8023,
      "𝜕": 8024,
      "🃏": 8025,
      "🆓": 8026,
      "🇦": 8027,
      "🇧": 8028,
      "🇨": 8029,
      "🇩": 8030,
      "🇪": 8031,
      "🇫": 8032,
      "🇬": 8033,
      "🇭": 8034,
      "🇮": 8035,
      "🇯": 8036,
      "🇰": 8037,
      "🇱": 8038,
      "🇳": 8039,
      "🇴": 8040,
      "🇵": 8041,
      "🇷": 8042,
      "🇸": 8043,
      "🇹": 8044,
      "🇺": 8045,
      "🇿": 8046,
      "🌃": 8047,
      "🌄": 8048,
      "🌅": 8049,
      "🌆": 8050,
      "🌇": 8051,
      "🌈": 8052,
      "🌉": 8053,
      "🌊": 8054,
      "🌋": 8055,
      "🌌": 8056,
      "🌍": 8057,
      "🌎": 8058,
      "🌏": 8059,
      "🌐": 8060,
      "🌑": 8061,
      "🌒": 8062,
      "🌓": 8063,
      "🌕": 8064,
      "🌖": 8065,
      "🌙": 8066,
      "🌛": 8067,
      "🌞": 8068,
      "🌟": 8069,
      "🌠": 8070,
      "🌡": 8071,
      "🌤": 8072,
      "🌥": 8073,
      "🌦": 8074,
      "🌧": 8075,
      "🌨": 8076,
      "🌩": 8077,
      "🌪": 8078,
      "🌬": 8079,
      "🌯": 8080,
      "🌱": 8081,
      "🌲": 8082,
      "🌳": 8083,
      "🌴": 8084,
      "🌵": 8085,
      "🌶": 8086,
      "🌷": 8087,
      "🌸": 8088,
      "🌹": 8089,
      "🌺": 8090,
      "🌻": 8091,
      "🌼": 8092,
      "🌽": 8093,
      "🌾": 8094,
      "🌿": 8095,
      "🍀": 8096,
      "🍁": 8097,
      "🍂": 8098,
      "🍃": 8099,
      "🍄": 8100,
      "🍅": 8101,
      "🍆": 8102,
      "🍇": 8103,
      "🍈": 8104,
      "🍉": 8105,
      "🍊": 8106,
      "🍋": 8107,
      "🍌": 8108,
      "🍍": 8109,
      "🍎": 8110,
      "🍏": 8111,
      "🍐": 8112,
      "🍑": 8113,
      "🍒": 8114,
      "🍓": 8115,
      "🍔": 8116,
      "🍕": 8117,
      "🍖": 8118,
      "🍗": 8119,
      "🍘": 8120,
      "🍙": 8121,
      "🍚": 8122,
      "🍛": 8123,
      "🍜": 8124,
      "🍞": 8125,
      "🍠": 8126,
      "🍣": 8127,
      "🍤": 8128,
      "🍥": 8129,
      "🍦": 8130,
      "🍨": 8131,
      "🍪": 8132,
      "🍫": 8133,
      "🍬": 8134,
      "🍭": 8135,
      "🍯": 8136,
      "🍰": 8137,
      "🍱": 8138,
      "🍲": 8139,
      "🍳": 8140,
      "🍴": 8141,
      "🍵": 8142,
      "🍷": 8143,
      "🍹": 8144,
      "🍻": 8145,
      "🍼": 8146,
      "🍽": 8147,
      "🍿": 8148,
      "🎀": 8149,
      "🎁": 8150,
      "🎂": 8151,
      "🎃": 8152,
      "🎄": 8153,
      "🎅": 8154,
      "🎆": 8155,
      "🎇": 8156,
      "🎈": 8157,
      "🎉": 8158,
      "🎊": 8159,
      "🎎": 8160,
      "🎒": 8161,
      "🎓": 8162,
      "🎖": 8163,
      "🎙": 8164,
      "🎟": 8165,
      "🎡": 8166,
      "🎢": 8167,
      "🎤": 8168,
      "🎥": 8169,
      "🎧": 8170,
      "🎨": 8171,
      "🎩": 8172,
      "🎪": 8173,
      "🎫": 8174,
      "🎬": 8175,
      "🎭": 8176,
      "🎮": 8177,
      "🎯": 8178,
      "🎲": 8179,
      "🎵": 8180,
      "🎶": 8181,
      "🎷": 8182,
      "🎸": 8183,
      "🎹": 8184,
      "🎻": 8185,
      "🎼": 8186,
      "🎾": 8187,
      "🏀": 8188,
      "🏁": 8189,
      "🏃": 8190,
      "🏄": 8191,
      "🏆": 8192,
      "🏈": 8193,
      "🏋": 8194,
      "🏎": 8195,
      "🏏": 8196,
      "🏔": 8197,
      "🏖": 8198,
      "🏗": 8199,
      "🏙": 8200,
      "🏛": 8201,
      "🏜": 8202,
      "🏝": 8203,
      "🏞": 8204,
      "🏠": 8205,
      "🏡": 8206,
      "🏢": 8207,
      "🏥": 8208,
      "🏦": 8209,
      "🏫": 8210,
      "🏭": 8211,
      "🏰": 8212,
      "🏴": 8213,
      "🏷": 8214,
      "🏹": 8215,
      "🏺": 8216,
      "🏻": 8217,
      "🏼": 8218,
      "🏽": 8219,
      "🐀": 8220,
      "🐄": 8221,
      "🐅": 8222,
      "🐆": 8223,
      "🐈": 8224,
      "🐉": 8225,
      "🐋": 8226,
      "🐌": 8227,
      "🐍": 8228,
      "🐎": 8229,
      "🐐": 8230,
      "🐒": 8231,
      "🐔": 8232,
      "🐕": 8233,
      "🐖": 8234,
      "🐘": 8235,
      "🐙": 8236,
      "🐚": 8237,
      "🐛": 8238,
      "🐜": 8239,
      "🐝": 8240,
      "🐞": 8241,
      "🐟": 8242,
      "🐠": 8243,
      "🐢": 8244,
      "🐣": 8245,
      "🐥": 8246,
      "🐦": 8247,
      "🐧": 8248,
      "🐫": 8249,
      "🐬": 8250,
      "🐭": 8251,
      "🐮": 8252,
      "🐯": 8253,
      "🐰": 8254,
      "🐱": 8255,
      "🐲": 8256,
      "🐳": 8257,
      "🐶": 8258,
      "🐸": 8259,
      "🐺": 8260,
      "🐻": 8261,
      "🐼": 8262,
      "🐾": 8263,
      "🐿": 8264,
      "👀": 8265,
      "👁": 8266,
      "👆": 8267,
      "👇": 8268,
      "👈": 8269,
      "👉": 8270,
      "👊": 8271,
      "👋": 8272,
      "👌": 8273,
      "👍": 8274,
      "👎": 8275,
      "👏": 8276,
      "👑": 8277,
      "👓": 8278,
      "👜": 8279,
      "👣": 8280,
      "👤": 8281,
      "👥": 8282,
      "👦": 8283,
      "👧": 8284,
      "👨": 8285,
      "👩": 8286,
      "👫": 8287,
      "👭": 8288,
      "👱": 8289,
      "👵": 8290,
      "👶": 8291,
      "👸": 8292,
      "👻": 8293,
      "👼": 8294,
      "👽": 8295,
      "💀": 8296,
      "💁": 8297,
      "💃": 8298,
      "💄": 8299,
      "💆": 8300,
      "💉": 8301,
      "💊": 8302,
      "💋": 8303,
      "💌": 8304,
      "💍": 8305,
      "💎": 8306,
      "💏": 8307,
      "💐": 8308,
      "💑": 8309,
      "💒": 8310,
      "💓": 8311,
      "💔": 8312,
      "💕": 8313,
      "💖": 8314,
      "💗": 8315,
      "💙": 8316,
      "💚": 8317,
      "💛": 8318,
      "💜": 8319,
      "💞": 8320,
      "💡": 8321,
      "💣": 8322,
      "💤": 8323,
      "💥": 8324,
      "💦": 8325,
      "💧": 8326,
      "💨": 8327,
      "💩": 8328,
      "💪": 8329,
      "💫": 8330,
      "💬": 8331,
      "💭": 8332,
      "💯": 8333,
      "💰": 8334,
      "💱": 8335,
      "💲": 8336,
      "💳": 8337,
      "💴": 8338,
      "💵": 8339,
      "💶": 8340,
      "💷": 8341,
      "💸": 8342,
      "💻": 8343,
      "💼": 8344,
      "💽": 8345,
      "💾": 8346,
      "📀": 8347,
      "📂": 8348,
      "📃": 8349,
      "📄": 8350,
      "📅": 8351,
      "📆": 8352,
      "📈": 8353,
      "📉": 8354,
      "📊": 8355,
      "📋": 8356,
      "📍": 8357,
      "📎": 8358,
      "📏": 8359,
      "📐": 8360,
      "📑": 8361,
      "📒": 8362,
      "📖": 8363,
      "📘": 8364,
      "📚": 8365,
      "📜": 8366,
      "📝": 8367,
      "📞": 8368,
      "📡": 8369,
      "📢": 8370,
      "📣": 8371,
      "📤": 8372,
      "📥": 8373,
      "📦": 8374,
      "📧": 8375,
      "📩": 8376,
      "📬": 8377,
      "📰": 8378,
      "📱": 8379,
      "📲": 8380,
      "📷": 8381,
      "📸": 8382,
      "📹": 8383,
      "📺": 8384,
      "📽": 8385,
      "📿": 8386,
      "🔀": 8387,
      "🔁": 8388,
      "🔄": 8389,
      "🔅": 8390,
      "🔋": 8391,
      "🔌": 8392,
      "🔍": 8393,
      "🔐": 8394,
      "🔑": 8395,
      "🔒": 8396,
      "🔔": 8397,
      "🔖": 8398,
      "🔗": 8399,
      "🔙": 8400,
      "🔚": 8401,
      "🔟": 8402,
      "🔡": 8403,
      "🔤": 8404,
      "🔥": 8405,
      "🔧": 8406,
      "🔨": 8407,
      "🔩": 8408,
      "🔪": 8409,
      "🔫": 8410,
      "🔬": 8411,
      "🔭": 8412,
      "🔮": 8413,
      "🔲": 8414,
      "🔴": 8415,
      "🔵": 8416,
      "🔹": 8417,
      "🔽": 8418,
      "🕉": 8419,
      "🕊": 8420,
      "🕌": 8421,
      "🕍": 8422,
      "🕒": 8423,
      "🕯": 8424,
      "🕰": 8425,
      "🕳": 8426,
      "🕵": 8427,
      "🕷": 8428,
      "🕸": 8429,
      "🕹": 8430,
      "🕺": 8431,
      "🖇": 8432,
      "🖊": 8433,
      "🖋": 8434,
      "🖌": 8435,
      "🖍": 8436,
      "🖐": 8437,
      "🖖": 8438,
      "🖤": 8439,
      "🖥": 8440,
      "🖼": 8441,
      "🗂": 8442,
      "🗃": 8443,
      "🗑": 8444,
      "🗓": 8445,
      "🗝": 8446,
      "🗡": 8447,
      "🗣": 8448,
      "🗨": 8449,
      "🗳": 8450,
      "🗺": 8451,
      "🗿": 8452,
      "😀": 8453,
      "😁": 8454,
      "😂": 8455,
      "😃": 8456,
      "😄": 8457,
      "😅": 8458,
      "😆": 8459,
      "😇": 8460,
      "😉": 8461,
      "😊": 8462,
      "😋": 8463,
      "😌": 8464,
      "😍": 8465,
      "😎": 8466,
      "😏": 8467,
      "😐": 8468,
      "😑": 8469,
      "😒": 8470,
      "😓": 8471,
      "😔": 8472,
      "😕": 8473,
      "😖": 8474,
      "😗": 8475,
      "😘": 8476,
      "😛": 8477,
      "😜": 8478,
      "😞": 8479,
      "😟": 8480,
      "😡": 8481,
      "😢": 8482,
      "😤": 8483,
      "😥": 8484,
      "😨": 8485,
      "😩": 8486,
      "😫": 8487,
      "😬": 8488,
      "😭": 8489,
      "😮": 8490,
      "😰": 8491,
      "😱": 8492,
      "😲": 8493,
      "😳": 8494,
      "😴": 8495,
      "😵": 8496,
      "😸": 8497,
      "😹": 8498,
      "😺": 8499,
      "😼": 8500,
      "🙀": 8501,
      "🙁": 8502,
      "🙂": 8503,
      "🙃": 8504,
      "🙄": 8505,
      "🙅": 8506,
      "🙇": 8507,
      "🙈": 8508,
      "🙉": 8509,
      "🙋": 8510,
      "🙌": 8511,
      "🙏": 8512,
      "🚀": 8513,
      "🚁": 8514,
      "🚂": 8515,
      "🚄": 8516,
      "🚇": 8517,
      "🚉": 8518,
      "🚊": 8519,
      "🚍": 8520,
      "🚑": 8521,
      "🚒": 8522,
      "🚕": 8523,
      "🚗": 8524,
      "🚚": 8525,
      "🚛": 8526,
      "🚜": 8527,
      "🚢": 8528,
      "🚣": 8529,
      "🚤": 8530,
      "🚦": 8531,
      "🚧": 8532,
      "🚨": 8533,
      "🚪": 8534,
      "🚫": 8535,
      "🚮": 8536,
      "🚰": 8537,
      "🚲": 8538,
      "🚴": 8539,
      "🚶": 8540,
      "🚽": 8541,
      "🚿": 8542,
      "🛀": 8543,
      "🛋": 8544,
      "🛌": 8545,
      "🛍": 8546,
      "🛏": 8547,
      "🛒": 8548,
      "🛠": 8549,
      "🛡": 8550,
      "🛣": 8551,
      "🛤": 8552,
      "🛩": 8553,
      "🛫": 8554,
      "🛬": 8555,
      "🛰": 8556,
      "🛸": 8557,
      "🟠": 8558,
      "🟡": 8559,
      "🟢": 8560,
      "🤐": 8561,
      "🤑": 8562,
      "🤒": 8563,
      "🤓": 8564,
      "🤔": 8565,
      "🤖": 8566,
      "🤗": 8567,
      "🤘": 8568,
      "🤙": 8569,
      "🤚": 8570,
      "🤝": 8571,
      "🤞": 8572,
      "🤟": 8573,
      "🤠": 8574,
      "🤣": 8575,
      "🤤": 8576,
      "🤦": 8577,
      "🤩": 8578,
      "🤪": 8579,
      "🤬": 8580,
      "🤯": 8581,
      "🤰": 8582,
      "🤲": 8583,
      "🤵": 8584,
      "🤷": 8585,
      "🤸": 8586,
      "🥁": 8587,
      "🥂": 8588,
      "🥄": 8589,
      "🥑": 8590,
      "🥒": 8591,
      "🥓": 8592,
      "🥔": 8593,
      "🥕": 8594,
      "🥖": 8595,
      "🥗": 8596,
      "🥘": 8597,
      "🥚": 8598,
      "🥛": 8599,
      "🥜": 8600,
      "🥝": 8601,
      "🥞": 8602,
      "🥢": 8603,
      "🥣": 8604,
      "🥤": 8605,
      "🥥": 8606,
      "🥦": 8607,
      "🥩": 8608,
      "🥪": 8609,
      "🥬": 8610,
      "🥰": 8611,
      "🥳": 8612,
      "🥺": 8613,
      "🥾": 8614,
      "🦀": 8615,
      "🦁": 8616,
      "🦄": 8617,
      "🦅": 8618,
      "🦆": 8619,
      "🦇": 8620,
      "🦈": 8621,
      "🦉": 8622,
      "🦊": 8623,
      "🦋": 8624,
      "🦌": 8625,
      "🦎": 8626,
      "🦏": 8627,
      "🦔": 8628,
      "🦕": 8629,
      "🦖": 8630,
      "🦗": 8631,
      "🦚": 8632,
      "🦜": 8633,
      "🦞": 8634,
      "🦟": 8635,
      "🦠": 8636,
      "🦡": 8637,
      "🦢": 8638,
      "🦣": 8639,
      "🦦": 8640,
      "🦧": 8641,
      "🦨": 8642,
      "🦪": 8643,
      "🦬": 8644,
      "🦭": 8645,
      "🦮": 8646,
      "🦰": 8647,
      "🦲": 8648,
      "🦳": 8649,
      "🦴": 8650,
      "🦶": 8651,
      "🦷": 8652,
      "🦸": 8653,
      "🦺": 8654,
      "🦽": 8655,
      "🦾": 8656,
      "🧀": 8657,
      "🧁": 8658,
      "🧅": 8659,
      "🧊": 8660,
      "🧐": 8661,
      "🧑": 8662,
      "🧒": 8663,
      "🧔": 8664,
      "🧘": 8665,
      "🧙": 8666,
      "🧚": 8667,
      "🧟": 8668,
      "🧠": 8669,
      "🧡": 8670,
      "🧢": 8671,
      "🧤": 8672,
      "🧦": 8673,
      "🧧": 8674,
      "🧩": 8675,
      "🧪": 8676,
      "🧫": 8677,
      "🧬": 8678,
      "🧭": 8679,
      "🧮": 8680,
      "🧱": 8681,
      "🧲": 8682,
      "🧵": 8683,
      "🧶": 8684,
      "🧸": 8685,
      "🧹": 8686,
      "🧺": 8687,
      "🧼": 8688,
      "🧽": 8689,
      "🩸": 8690,
      "🩺": 8691,
      "🪄": 8692,
      "🪐": 8693,
      "🪑": 8694,
      "🪙": 8695,
      "🪨": 8696,
      "🪫": 8697,
      "🪱": 8698,
      "🪲": 8699,
      "🫑": 8700,
      "🫖": 8701,
      "th": 8702,
      "in": 8703,
      "an": 8704,
      "re": 8705,
      "the": 8706,
      "on": 8707,
      "at": 8708,
      "er": 8709,
      "en": 8710,
      "or": 8711,
      "al": 8712,
      "es": 8713,
      "is": 8714,
      "ing": 8715,
      "ou": 8716,
      "and": 8717,
      "to": 8718,
      "ti": 8719,
      "ar": 8720,
      "of": 8721,
      "le": 8722,
      "st": 8723,
      "it": 8724,
      "ed": 8725,
      "as": 8726,
      "ch": 8727,
      "ro": 8728,
      "se": 8729,
      "ion": 8730,
      "ve": 8731,
      "ent": 8732,
      "ic": 8733,
      "de": 8734,
      "me": 8735,
      "he": 8736,
      "ac": 8737,
      "co": 8738,
      "you": 8739,
      "be": 8740,
      "for": 8741,
      "tion": 8742,
      "ly": 8743,
      "mp": 8744,
      "ation": 8745,
      "lo": 8746,
      "con": 8747,
      "su": 8748,
      "ce": 8749,
      "il": 8750,
      "that": 8751,
      "ig": 8752,
      "ex": 8753,
      "un": 8754,
      "we": 8755,
      "mo": 8756,
      "ge": 8757,
      "pro": 8758,
      "are": 8759,
      "ab": 8760,
      "ma": 8761,
      "ad": 8762,
      "ec": 8763,
      "us": 8764,
      "id": 8765,
      "ter": 8766,
      "ver": 8767,
      "ith": 8768,
      "if": 8769,
      "ate": 8770,
      "tr": 8771,
      "so": 8772,
      "ke": 8773,
      "can": 8774,
      "ts": 8775,
      "with": 8776,
      "res": 8777,
      "ur": 8778,
      "no": 8779,
      "wh": 8780,
      "ul": 8781,
      "ld": 8782,
      "ment": 8783,
      "ir": 8784,
      "po": 8785,
      "ay": 8786,
      "li": 8787,
      "ess": 8788,
      "The": 8789,
      "per": 8790,
      "qu": 8791,
      "ut": 8792,
      "ap": 8793,
      "your": 8794,
      "ne": 8795,
      "te": 8796,
      "igh": 8797,
      "ity": 8798,
      "sh": 8799,
      "fe": 8800,
      "si": 8801,
      "ta": 8802,
      "um": 8803,
      "am": 8804,
      "ow": 8805,
      "ther": 8806,
      "out": 8807,
      "ri": 8808,
      "di": 8809,
      "Th": 8810,
      "ould": 8811,
      "pl": 8812,
      "all": 8813,
      "ers": 8814,
      "ll": 8815,
      "sp": 8816,
      "wor": 8817,
      "str": 8818,
      "our": 8819,
      "ist": 8820,
      "oun": 8821,
      "cl": 8822,
      "more": 8823,
      "ha": 8824,
      "ach": 8825,
      "fo": 8826,
      "this": 8827,
      "val": 8828,
      "ind": 8829,
      "uc": 8830,
      "comp": 8831,
      "gr": 8832,
      "by": 8833,
      "vi": 8834,
      "``": 8835,
      "ill": 8836,
      "tic": 8837,
      "cre": 8838,
      "op": 8839,
      "est": 8840,
      "This": 8841,
      "form": 8842,
      "ence": 8843,
      "ant": 8844,
      "ight": 8845,
      "ren": 8846,
      "rom": 8847,
      "do": 8848,
      "imp": 8849,
      "end": 8850,
      "ue": 8851,
      "whi": 8852,
      "ine": 8853,
      "com": 8854,
      "age": 8855,
      "**": 8856,
      "king": 8857,
      "one": 8858,
      "tions": 8859,
      "et": 8860,
      "able": 8861,
      "from": 8862,
      "not": 8863,
      "dat": 8864,
      "int": 8865,
      "ect": 8866,
      "low": 8867,
      "num": 8868,
      "have": 8869,
      "ort": 8870,
      "enti": 8871,
      "ally": 8872,
      "act": 8873,
      "ance": 8874,
      "par": 8875,
      "od": 8876,
      "In": 8877,
      "their": 8878,
      "any": 8879,
      "tive": 8880,
      "ive": 8881,
      "ction": 8882,
      "red": 8883,
      "fun": 8884,
      "00": 8885,
      "der": 8886,
      "Wh": 8887,
      "pe": 8888,
      "ci": 8889,
      "ef": 8890,
      "pr": 8891,
      "ag": 8892,
      "ations": 8893,
      "but": 8894,
      "ol": 8895,
      "ass": 8896,
      "ure": 8897,
      "its": 8898,
      "dis": 8899,
      "data": 8900,
      "ack": 8901,
      "ari": 8902,
      "which": 8903,
      "also": 8904,
      "ase": 8905,
      "use": 8906,
      "numb": 8907,
      "up": 8908,
      "ra": 8909,
      "iz": 8910,
      "em": 8911,
      "ard": 8912,
      "ven": 8913,
      "ip": 8914,
      "go": 8915,
      "ast": 8916,
      "hel": 8917,
      "ext": 8918,
      "ang": 8919,
      "will": 8920,
      "gh": 8921,
      "ign": 8922,
      "bo": 8923,
      "pres": 8924,
      "ty": 8925,
      "ud": 8926,
      "my": 8927,
      "other": 8928,
      "ust": 8929,
      "tur": 8930,
      "like": 8931,
      "rel": 8932,
      "ting": 8933,
      "ound": 8934,
      "el": 8935,
      "im": 8936,
      "ies": 8937,
      "some": 8938,
      "function": 8939,
      "ary": 8940,
      "pre": 8941,
      "help": 8942,
      "ble": 8943,
      "has": 8944,
      "time": 8945,
      "ame": 8946,
      "sion": 8947,
      "bet": 8948,
      "ces": 8949,
      "ough": 8950,
      "ific": 8951,
      "about": 8952,
      "here": 8953,
      "work": 8954,
      "ob": 8955,
      "amp": 8956,
      "ct": 8957,
      "cus": 8958,
      "ative": 8959,
      "turn": 8960,
      "av": 8961,
      "such": 8962,
      "sid": 8963,
      "they": 8964,
      "cal": 8965,
      "ain": 8966,
      "get": 8967,
      "way": 8968,
      "om": 8969,
      "them": 8970,
      "```": 8971,
      "now": 8972,
      "ans": 8973,
      "ating": 8974,
      "vid": 8975,
      "ties": 8976,
      "ous": 8977,
      "ep": 8978,
      "cur": 8979,
      "feren": 8980,
      "spec": 8981,
      "cor": 8982,
      "comm": 8983,
      "dif": 8984,
      "ated": 8985,
      "over": 8986,
      "ph": 8987,
      "art": 8988,
      "day": 8989,
      "ser": 8990,
      "rit": 8991,
      "ments": 8992,
      "ents": 8993,
      "ical": 8994,
      "stand": 8995,
      "new": 8996,
      "could": 8997,
      "It": 8998,
      "was": 8999,
      "would": 9000,
      "cess": 9001,
      "sider": 9002,
      "cont": 9003,
      "What": 9004,
      "ors": 9005,
      "eng": 9006,
      "return": 9007,
      "need": 9008,
      "make": 9009,
      "ful": 9010,
      "ear": 9011,
      "ves": 9012,
      "eff": 9013,
      "ise": 9014,
      "tain": 9015,
      "vari": 9016,
      "ong": 9017,
      "tw": 9018,
      "ory": 9019,
      "sel": 9020,
      "ace": 9021,
      "list": 9022,
      "yth": 9023,
      "ility": 9024,
      "number": 9025,
      "ween": 9026,
      "vis": 9027,
      "ial": 9028,
      "between": 9029,
      "He": 9030,
      "into": 9031,
      "les": 9032,
      "ho": 9033,
      "under": 9034,
      "inter": 9035,
      "ice": 9036,
      "ential": 9037,
      "valu": 9038,
      "inte": 9039,
      "des": 9040,
      "char": 9041,
      "To": 9042,
      "read": 9043,
      "You": 9044,
      "ks": 9045,
      "put": 9046,
      "ide": 9047,
      "ten": 9048,
      "gu": 9049,
      "own": 9050,
      "set": 9051,
      "each": 9052,
      "bu": 9053,
      "where": 9054,
      "tri": 9055,
      "log": 9056,
      "ship": 9057,
      "duc": 9058,
      "resp": 9059,
      "using": 9060,
      "these": 9061,
      "peri": 9062,
      "ates": 9063,
      "ython": 9064,
      "ie": 9065,
      "ample": 9066,
      "ual": 9067,
      "def": 9068,
      "tim": 9069,
      "led": 9070,
      "sy": 9071,
      "cul": 9072,
      "find": 9073,
      "term": 9074,
      "self": 9075,
      "differen": 9076,
      "value": 9077,
      "exp": 9078,
      "ener": 9079,
      "may": 9080,
      "incl": 9081,
      "ys": 9082,
      "If": 9083,
      "two": 9084,
      "how": 9085,
      "man": 9086,
      "relation": 9087,
      "add": 9088,
      "there": 9089,
      "consider": 9090,
      "ving": 9091,
      "ange": 9092,
      "know": 9093,
      "son": 9094,
      "what": 9095,
      "port": 9096,
      "vide": 9097,
      "who": 9098,
      "lear": 9099,
      "writ": 9100,
      "sol": 9101,
      "her": 9102,
      "cri": 9103,
      "when": 9104,
      "should": 9105,
      "sent": 9106,
      "main": 9107,
      "irst": 9108,
      "row": 9109,
      "than": 9110,
      "af": 9111,
      "au": 9112,
      "ings": 9113,
      "mb": 9114,
      "line": 9115,
      "sul": 9116,
      "coun": 9117,
      "high": 9118,
      "We": 9119,
      "back": 9120,
      "app": 9121,
      "br": 9122,
      "acter": 9123,
      "appro": 9124,
      "respon": 9125,
      "well": 9126,
      "sign": 9127,
      "10": 9128,
      "ability": 9129,
      "emp": 9130,
      "sum": 9131,
      "off": 9132,
      "ele": 9133,
      "pri": 9134,
      "ds": 9135,
      "lic": 9136,
      "ree": 9137,
      "20": 9138,
      "arr": 9139,
      "equ": 9140,
      "experi": 9141,
      "character": 9142,
      "create": 9143,
      "Here": 9144,
      "mar": 9145,
      "resul": 9146,
      "ater": 9147,
      "sing": 9148,
      "key": 9149,
      "col": 9150,
      "reg": 9151,
      "**:": 9152,
      "tern": 9153,
      "sure": 9154,
      "ite": 9155,
      "anal": 9156,
      "used": 9157,
      "ish": 9158,
      "),": 9159,
      "ca": 9160,
      "rough": 9161,
      "sub": 9162,
      "rest": 9163,
      "For": 9164,
      "inform": 9165,
      "med": 9166,
      "comple": 9167,
      ").": 9168,
      "min": 9169,
      "ail": 9170,
      "enc": 9171,
      "pos": 9172,
      "gg": 9173,
      "llow": 9174,
      "then": 9175,
      "ities": 9176,
      "):": 9177,
      "fact": 9178,
      "mean": 9179,
      "--": 9180,
      "sen": 9181,
      "cho": 9182,
      "might": 9183,
      "lif": 9184,
      "understand": 9185,
      "pa": 9186,
      "..": 9187,
      "first": 9188,
      "ze": 9189,
      "dition": 9190,
      "follow": 9191,
      "ev": 9192,
      "ot": 9193,
      "ok": 9194,
      ".\"": 9195,
      "conc": 9196,
      "just": 9197,
      "ning": 9198,
      "produc": 9199,
      "plan": 9200,
      "wer": 9201,
      "inv": 9202,
      "velo": 9203,
      "been": 9204,
      "How": 9205,
      "fl": 9206,
      "tom": 9207,
      "ject": 9208,
      "very": 9209,
      "pot": 9210,
      "ques": 9211,
      "person": 9212,
      "Ho": 9213,
      "relationship": 9214,
      "vel": 9215,
      "fi": 9216,
      "tal": 9217,
      "cep": 9218,
      "stud": 9219,
      "fore": 9220,
      "ular": 9221,
      "gi": 9222,
      "ased": 9223,
      "specific": 9224,
      "through": 9225,
      "struc": 9226,
      "values": 9227,
      "year": 9228,
      "fin": 9229,
      "ress": 9230,
      "ective": 9231,
      "By": 9232,
      "text": 9233,
      "wever": 9234,
      "while": 9235,
      "ak": 9236,
      "stem": 9237,
      "ved": 9238,
      "example": 9239,
      "arch": 9240,
      "ild": 9241,
      "try": 9242,
      "ink": 9243,
      "string": 9244,
      "take": 9245,
      "let": 9246,
      "requ": 9247,
      "rect": 9248,
      "approach": 9249,
      "provide": 9250,
      "velop": 9251,
      "()": 9252,
      "istic": 9253,
      "sup": 9254,
      "ew": 9255,
      "Con": 9256,
      "his": 9257,
      "gram": 9258,
      "gre": 9259,
      "present": 9260,
      "feel": 9261,
      "However": 9262,
      "cent": 9263,
      "ences": 9264,
      "nec": 9265,
      "As": 9266,
      "most": 9267,
      "mon": 9268,
      "sur": 9269,
      "come": 9270,
      "lead": 9271,
      "gener": 9272,
      "ici": 9273,
      "ople": 9274,
      "als": 9275,
      "incre": 9276,
      "numbers": 9277,
      "input": 9278,
      "sentence": 9279,
      "process": 9280,
      "does": 9281,
      "Re": 9282,
      "see": 9283,
      "ins": 9284,
      "top": 9285,
      "signific": 9286,
      "oup": 9287,
      "ures": 9288,
      "ture": 9289,
      "mul": 9290,
      "import": 9291,
      "system": 9292,
      "sm": 9293,
      "making": 9294,
      "develop": 9295,
      "mis": 9296,
      "dep": 9297,
      "being": 9298,
      "people": 9299,
      "want": 9300,
      "posi": 9301,
      "cr": 9302,
      "ub": 9303,
      "only": 9304,
      "ness": 9305,
      "tech": 9306,
      "pat": 9307,
      "ude": 9308,
      "del": 9309,
      "fy": 9310,
      "case": 9311,
      "even": 9312,
      "loc": 9313,
      "includ": 9314,
      "care": 9315,
      "print": 9316,
      "soci": 9317,
      "mat": 9318,
      "focus": 9319,
      "ases": 9320,
      "impro": 9321,
      "hand": 9322,
      "ality": 9323,
      "calcul": 9324,
      "aph": 9325,
      "ily": 9326,
      "information": 9327,
      "vers": 9328,
      "different": 9329,
      "potential": 9330,
      "search": 9331,
      "An": 9332,
      "que": 9333,
      "iti": 9334,
      "thod": 9335,
      "identi": 9336,
      "both": 9337,
      "commun": 9338,
      "class": 9339,
      "point": 9340,
      "thing": 9341,
      "long": 9342,
      "python": 9343,
      "start": 9344,
      "inst": 9345,
      "conf": 9346,
      "provid": 9347,
      "allow": 9348,
      "chang": 9349,
      "cli": 9350,
      "divid": 9351,
      "ects": 9352,
      "simp": 9353,
      "kes": 9354,
      "down": 9355,
      "loy": 9356,
      "less": 9357,
      "dec": 9358,
      "play": 9359,
      "medi": 9360,
      "method": 9361,
      "ose": 9362,
      "multi": 9363,
      "light": 9364,
      "ref": 9365,
      "significant": 9366,
      "graph": 9367,
      "ince": 9368,
      "argu": 9369,
      "group": 9370,
      "ize": 9371,
      "So": 9372,
      "ints": 9373,
      "aw": 9374,
      "ways": 9375,
      "ateg": 9376,
      "name": 9377,
      "complex": 9378,
      "vo": 9379,
      "often": 9380,
      "ner": 9381,
      "uni": 9382,
      "iness": 9383,
      "sugg": 9384,
      "blem": 9385,
      "ision": 9386,
      "view": 9387,
      "sti": 9388,
      "Python": 9389,
      "ted": 9390,
      "ics": 9391,
      "world": 9392,
      "life": 9393,
      "lar": 9394,
      "ger": 9395,
      "grow": 9396,
      "bin": 9397,
      "sk": 9398,
      "problem": 9399,
      "stat": 9400,
      "impact": 9401,
      "sal": 9402,
      "custom": 9403,
      "feet": 9404,
      "many": 9405,
      "ss": 9406,
      "vir": 9407,
      "ple": 9408,
      "sco": 9409,
      "bus": 9410,
      "state": 9411,
      "essential": 9412,
      "ward": 9413,
      "bre": 9414,
      "ately": 9415,
      "possi": 9416,
      "por": 9417,
      "had": 9418,
      "tional": 9419,
      "alth": 9420,
      "cause": 9421,
      "Ad": 9422,
      "step": 9423,
      "real": 9424,
      "ysis": 9425,
      "she": 9426,
      "err": 9427,
      "St": 9428,
      "ights": 9429,
      "sense": 9430,
      "sc": 9431,
      "sive": 9432,
      "sa": 9433,
      "writing": 9434,
      "cost": 9435,
      "sn": 9436,
      "small": 9437,
      "company": 9438,
      "ni": 9439,
      "))": 9440,
      "plic": 9441,
      "ese": 9442,
      "part": 9443,
      "were": 9444,
      "tra": 9445,
      "clear": 9446,
      "ask": 9447,
      "code": 9448,
      "mag": 9449,
      "prof": 9450,
      "lish": 9451,
      "effective": 9452,
      "test": 9453,
      "same": 9454,
      "interest": 9455,
      "tiv": 9456,
      "analysis": 9457,
      "chall": 9458,
      "given": 9459,
      "\",": 9460,
      "experience": 9461,
      "result": 9462,
      "serv": 9463,
      "fic": 9464,
      "verage": 9465,
      "improve": 9466,
      "phr": 9467,
      "curren": 9468,
      "fr": 9469,
      "12": 9470,
      "including": 9471,
      "ables": 9472,
      "action": 9473,
      "right": 9474,
      "perform": 9475,
      "effici": 9476,
      "show": 9477,
      "Ex": 9478,
      "support": 9479,
      "18": 9480,
      "side": 9481,
      "When": 9482,
      "story": 9483,
      "da": 9484,
      "fri": 9485,
      "lang": 9486,
      "reach": 9487,
      "ices": 9488,
      "==": 9489,
      "depend": 9490,
      "points": 9491,
      "ield": 9492,
      "following": 9493,
      "typ": 9494,
      "requi": 9495,
      "ile": 9496,
      "team": 9497,
      "words": 9498,
      "ft": 9499,
      "distri": 9500,
      "employ": 9501,
      "friend": 9502,
      "invol": 9503,
      "range": 9504,
      "think": 9505,
      "pass": 9506,
      "19": 9507,
      "(\"": 9508,
      "dist": 9509,
      "chec": 9510,
      "partic": 9511,
      "000": 9512,
      "total": 9513,
      "lement": 9514,
      "ature": 9515,
      "model": 9516,
      "mental": 9517,
      "cer": 9518,
      "identify": 9519,
      "uring": 9520,
      "gan": 9521,
      "memb": 9522,
      "ced": 9523,
      "bal": 9524,
      "langu": 9525,
      "business": 9526,
      "pop": 9527,
      "contain": 9528,
      "ding": 9529,
      "decision": 9530,
      "ason": 9531,
      "du": 9532,
      "count": 9533,
      "understanding": 9534,
      "place": 9535,
      "inal": 9536,
      "ution": 9537,
      "oc": 9538,
      "issu": 9539,
      "There": 9540,
      "though": 9541,
      "job": 9542,
      "research": 9543,
      "program": 9544,
      "trans": 9545,
      "ens": 9546,
      "ency": 9547,
      "mer": 9548,
      "viron": 9549,
      "cap": 9550,
      "adv": 9551,
      "Ch": 9552,
      "dic": 9553,
      "clo": 9554,
      ");": 9555,
      "expres": 9556,
      "These": 9557,
      "orig": 9558,
      "aging": 9559,
      "os": 9560,
      "must": 9561,
      "level": 9562,
      "la": 9563,
      "determ": 9564,
      "tric": 9565,
      "ational": 9566,
      "crip": 9567,
      "tical": 9568,
      "non": 9569,
      "jo": 9570,
      "prob": 9571,
      "change": 9572,
      "without": 9573,
      "ling": 9574,
      "Al": 9575,
      "based": 9576,
      "word": 9577,
      "snail": 9578,
      "ected": 9579,
      "response": 9580,
      "type": 9581,
      "mal": 9582,
      "health": 9583,
      "concise": 9584,
      "sequ": 9585,
      "environ": 9586,
      "include": 9587,
      "ensure": 9588,
      ",\"": 9589,
      "share": 9590,
      "cle": 9591,
      "ines": 9592,
      "fam": 9593,
      "pur": 9594,
      "ars": 9595,
      "ben": 9596,
      "mind": 9597,
      "average": 9598,
      "years": 9599,
      "temp": 9600,
      "pattern": 9601,
      "individ": 9602,
      "made": 9603,
      "colle": 9604,
      "ists": 9605,
      "language": 9606,
      "Your": 9607,
      "air": 9608,
      "build": 9609,
      "don": 9610,
      "15": 9611,
      "argument": 9612,
      "emo": 9613,
      "ized": 9614,
      "indic": 9615,
      "because": 9616,
      "',": 9617,
      "individual": 9618,
      "current": 9619,
      "gy": 9620,
      "mit": 9621,
      "bi": 9622,
      "every": 9623,
      "contin": 9624,
      "hour": 9625,
      "ati": 9626,
      "distribu": 9627,
      "power": 9628,
      "days": 9629,
      "men": 9630,
      "ters": 9631,
      "changes": 9632,
      "hum": 9633,
      "around": 9634,
      "tail": 9635,
      "ator": 9636,
      "ession": 9637,
      "represent": 9638,
      "expl": 9639,
      "still": 9640,
      "possible": 9641,
      "cond": 9642,
      "sit": 9643,
      "standard": 9644,
      "squ": 9645,
      "oper": 9646,
      "En": 9647,
      "within": 9648,
      "after": 9649,
      "good": 9650,
      "urther": 9651,
      "ization": 9652,
      "times": 9653,
      "offer": 9654,
      "marke": 9655,
      "tle": 9656,
      "ris": 9657,
      "challeng": 9658,
      "positive": 9659,
      "say": 9660,
      "cept": 9661,
      "ically": 9662,
      "few": 9663,
      "land": 9664,
      "open": 9665,
      "max": 9666,
      "ills": 9667,
      "working": 9668,
      "organ": 9669,
      "dri": 9670,
      "necess": 9671,
      "unique": 9672,
      "students": 9673,
      "Co": 9674,
      "nam": 9675,
      "cons": 9676,
      "social": 9677,
      "statistic": 9678,
      "design": 9679,
      "direct": 9680,
      "variables": 9681,
      "adi": 9682,
      "found": 9683,
      "oking": 9684,
      "role": 9685,
      "version": 9686,
      "local": 9687,
      "square": 9688,
      "fil": 9689,
      "original": 9690,
      "factors": 9691,
      "implement": 9692,
      "before": 9693,
      "fac": 9694,
      "comes": 9695,
      "project": 9696,
      "tran": 9697,
      "ick": 9698,
      "dra": 9699,
      "product": 9700,
      "explo": 9701,
      "lot": 9702,
      "ms": 9703,
      "sto": 9704,
      "employe": 9705,
      "suc": 9706,
      "field": 9707,
      "takes": 9708,
      "analy": 9709,
      "better": 9710,
      "bl": 9711,
      "25": 9712,
      "head": 9713,
      "proper": 9714,
      "They": 9715,
      "bit": 9716,
      "benef": 9717,
      "order": 9718,
      "gether": 9719,
      "great": 9720,
      "space": 9721,
      "array": 9722,
      "efficient": 9723,
      "ests": 9724,
      "item": 9725,
      "hold": 9726,
      "Pro": 9727,
      "ps": 9728,
      "elements": 9729,
      "water": 9730,
      "actions": 9731,
      "aff": 9732,
      "mil": 9733,
      "area": 9734,
      "probability": 9735,
      "distribution": 9736,
      "ead": 9737,
      "strateg": 9738,
      "meas": 9739,
      "growth": 9740,
      "obj": 9741,
      "lying": 9742,
      "move": 9743,
      "portun": 9744,
      "together": 9745,
      "size": 9746,
      "ths": 9747,
      "Addition": 9748,
      "discus": 9749,
      "structure": 9750,
      "opportun": 9751,
      "11": 9752,
      "ball": 9753,
      "combin": 9754,
      "net": 9755,
      "den": 9756,
      "logy": 9757,
      "user": 9758,
      "those": 9759,
      "30": 9760,
      "----": 9761,
      "...": 9762,
      "personal": 9763,
      "iter": 9764,
      "acti": 9765,
      "climb": 9766,
      "appe": 9767,
      "usion": 9768,
      "keep": 9769,
      "common": 9770,
      "second": 9771,
      "flu": 9772,
      "//": 9773,
      "100": 9774,
      "One": 9775,
      "best": 9776,
      "nor": 9777,
      "next": 9778,
      "flow": 9779,
      "spe": 9780,
      "variable": 9781,
      "Additionally": 9782,
      "ideas": 9783,
      "ustr": 9784,
      "ural": 9785,
      "areas": 9786,
      "pub": 9787,
      "uses": 9788,
      "Can": 9789,
      "achie": 9790,
      "ories": 9791,
      "skills": 9792,
      "maintain": 9793,
      "aim": 9794,
      "during": 9795,
      "gin": 9796,
      "cour": 9797,
      "ff": 9798,
      "ax": 9799,
      "Consider": 9800,
      "prior": 9801,
      "old": 9802,
      "success": 9803,
      "ilities": 9804,
      "concl": 9805,
      "left": 9806,
      "valid": 9807,
      "connec": 9808,
      "On": 9809,
      "means": 9810,
      "look": 9811,
      "eas": 9812,
      "Let": 9813,
      "sever": 9814,
      "tar": 9815,
      "ns": 9816,
      "ources": 9817,
      "No": 9818,
      "inde": 9819,
      "clar": 9820,
      "tract": 9821,
      "content": 9822,
      "file": 9823,
      "terms": 9824,
      "energy": 9825,
      "star": 9826,
      "meet": 9827,
      "tribut": 9828,
      "leng": 9829,
      "fall": 9830,
      "car": 9831,
      "manage": 9832,
      "three": 9833,
      "last": 9834,
      "ctions": 9835,
      "idea": 9836,
      "ulation": 9837,
      "ath": 9838,
      "date": 9839,
      "whe": 9840,
      "particular": 9841,
      "verse": 9842,
      "AI": 9843,
      "correct": 9844,
      "hist": 9845,
      "initi": 9846,
      "ather": 9847,
      "tre": 9848,
      "city": 9849,
      "addition": 9850,
      "ute": 9851,
      "returns": 9852,
      "call": 9853,
      "overall": 9854,
      "ross": 9855,
      "true": 9856,
      "member": 9857,
      "calculate": 9858,
      "cu": 9859,
      "hours": 9860,
      "bility": 9861,
      "table": 9862,
      "Tr": 9863,
      "ore": 9864,
      "tend": 9865,
      "least": 9866,
      "answer": 9867,
      "relationships": 9868,
      "needs": 9869,
      "anci": 9870,
      "important": 9871,
      "access": 9872,
      "results": 9873,
      "known": 9874,
      "revis": 9875,
      "address": 9876,
      "equation": 9877,
      "strong": 9878,
      "mess": 9879,
      "ages": 9880,
      "difference": 9881,
      "50": 9882,
      "cy": 9883,
      "atch": 9884,
      "asp": 9885,
      "ying": 9886,
      "sentences": 9887,
      "hy": 9888,
      "conve": 9889,
      "mu": 9890,
      "ternative": 9891,
      "lling": 9892,
      "dr": 9893,
      "characters": 9894,
      "series": 9895,
      "rather": 9896,
      "ster": 9897,
      "check": 9898,
      "ible": 9899,
      "seem": 9900,
      "reason": 9901,
      "Since": 9902,
      "ey": 9903,
      "wee": 9904,
      "several": 9905,
      "sales": 9906,
      "multiple": 9907,
      "pare": 9908,
      "iting": 9909,
      "defin": 9910,
      "ants": 9911,
      "meaning": 9912,
      "limit": 9913,
      "logical": 9914,
      "face": 9915,
      "abor": 9916,
      "context": 9917,
      "esp": 9918,
      "lex": 9919,
      "cruc": 9920,
      "ances": 9921,
      "event": 9922,
      "ord": 9923,
      "write": 9924,
      "questions": 9925,
      "something": 9926,
      "goals": 9927,
      "ited": 9928,
      "explore": 9929,
      "crucial": 9930,
      "lies": 9931,
      "dig": 9932,
      "og": 9933,
      "active": 9934,
      "devi": 9935,
      "assist": 9936,
      "concer": 9937,
      "him": 9938,
      "taking": 9939,
      "profession": 9940,
      "ake": 9941,
      "various": 9942,
      "But": 9943,
      "large": 9944,
      "whether": 9945,
      "quality": 9946,
      "Now": 9947,
      "anced": 9948,
      "alse": 9949,
      "ome": 9950,
      "oid": 9951,
      "happ": 9952,
      "question": 9953,
      "educ": 9954,
      "ready": 9955,
      "necessary": 9956,
      "community": 9957,
      "themat": 9958,
      "\")": 9959,
      "agraph": 9960,
      "night": 9961,
      "nat": 9962,
      "further": 9963,
      "run": 9964,
      "sample": 9965,
      "nu": 9966,
      "asing": 9967,
      "rele": 9968,
      "communic": 9969,
      "Ano": 9970,
      "16": 9971,
      "tool": 9972,
      "ark": 9973,
      "foot": 9974,
      "public": 9975,
      "length": 9976,
      "Another": 9977,
      "__": 9978,
      "remain": 9979,
      "since": 9980,
      "break": 9981,
      "always": 9982,
      "situ": 9983,
      "visual": 9984,
      "rol": 9985,
      "influ": 9986,
      "oring": 9987,
      "gen": 9988,
      "ital": 9989,
      "neg": 9990,
      "element": 9991,
      "lower": 9992,
      "paragraph": 9993,
      "17": 9994,
      "draw": 9995,
      "diction": 9996,
      "got": 9997,
      "target": 9998,
      "cir": 9999,
      "{\\": 10000,
      "general": 10001,
      "ber": 10002,
      "home": 10003,
      "patterns": 10004,
      "ablish": 10005,
      "ually": 10006,
      "arm": 10007,
      "audi": 10008,
      "room": 10009,
      "insights": 10010,
      "Is": 10011,
      "Be": 10012,
      "Writ": 10013,
      "determine": 10014,
      "statement": 10015,
      "ression": 10016,
      "creating": 10017,
      "And": 10018,
      "else": 10019,
      "train": 10020,
      "human": 10021,
      "development": 10022,
      "beha": 10023,
      "coll": 10024,
      "likely": 10025,
      "Use": 10026,
      "performance": 10027,
      "acy": 10028,
      "rr": 10029,
      "looking": 10030,
      "solution": 10031,
      "sw": 10032,
      "ult": 10033,
      "engaging": 10034,
      "increase": 10035,
      "atures": 10036,
      "sci": 10037,
      "fer": 10038,
      "`.": 10039,
      "mathemat": 10040,
      "sed": 10041,
      "aring": 10042,
      "give": 10043,
      "learning": 10044,
      "lect": 10045,
      "behavi": 10046,
      "phys": 10047,
      "natural": 10048,
      "De": 10049,
      "conver": 10050,
      "evalu": 10051,
      "environment": 10052,
      "suggest": 10053,
      "error": 10054,
      "exam": 10055,
      "ched": 10056,
      "techni": 10057,
      "avoid": 10058,
      "challenges": 10059,
      "hi": 10060,
      "consist": 10061,
      "prog": 10062,
      "angle": 10063,
      "detail": 10064,
      "tone": 10065,
      "ied": 10066,
      "clarity": 10067,
      "phrase": 10068,
      "systems": 10069,
      "$\\": 10070,
      "rand": 10071,
      "sty": 10072,
      ".,": 10073,
      "events": 10074,
      "integr": 10075,
      "accur": 10076,
      "techno": 10077,
      "family": 10078,
      "correlation": 10079,
      "too": 10080,
      "continu": 10081,
      "path": 10082,
      "learn": 10083,
      "reduc": 10084,
      "aset": 10085,
      "ave": 10086,
      "pi": 10087,
      "linear": 10088,
      "thin": 10089,
      "conn": 10090,
      "mary": 10091,
      "scen": 10092,
      "much": 10093,
      "again": 10094,
      "stay": 10095,
      "convers": 10096,
      "certain": 10097,
      "mem": 10098,
      "food": 10099,
      "enh": 10100,
      "another": 10101,
      "simple": 10102,
      "others": 10103,
      "const": 10104,
      "effectively": 10105,
      "ck": 10106,
      "dataset": 10107,
      "sis": 10108,
      "conclusion": 10109,
      "Write": 10110,
      "issues": 10111,
      "math": 10112,
      "sort": 10113,
      "ount": 10114,
      "izing": 10115,
      "ism": 10116,
      "sound": 10117,
      "ledge": 10118,
      "mod": 10119,
      "due": 10120,
      "balance": 10121,
      "ouse": 10122,
      "feed": 10123,
      "career": 10124,
      "population": 10125,
      "study": 10126,
      "fully": 10127,
      "zing": 10128,
      "revised": 10129,
      "Therefore": 10130,
      "provides": 10131,
      "dependent": 10132,
      "ule": 10133,
      "sat": 10134,
      "descri": 10135,
      "ls": 10136,
      "establish": 10137,
      "pose": 10138,
      "Last": 10139,
      "ash": 10140,
      "cog": 10141,
      "aries": 10142,
      "integer": 10143,
      "My": 10144,
      "exist": 10145,
      "methods": 10146,
      "lines": 10147,
      "ape": 10148,
      "ia": 10149,
      "Fin": 10150,
      "message": 10151,
      "benefits": 10152,
      "customer": 10153,
      "formul": 10154,
      "expression": 10155,
      "deep": 10156,
      "redic": 10157,
      "steps": 10158,
      "asks": 10159,
      "customers": 10160,
      "going": 10161,
      "cover": 10162,
      "require": 10163,
      "rate": 10164,
      "begin": 10165,
      "intro": 10166,
      "`,": 10167,
      "ials": 10168,
      "bul": 10169,
      "negative": 10170,
      "bra": 10171,
      "dy": 10172,
      "ions": 10173,
      "gers": 10174,
      "ade": 10175,
      "child": 10176,
      "equal": 10177,
      "itch": 10178,
      "dictionary": 10179,
      "instance": 10180,
      "control": 10181,
      "travel": 10182,
      "tivity": 10183,
      "scores": 10184,
      "gain": 10185,
      "bs": 10186,
      "tru": 10187,
      "\"\"": 10188,
      "],": 10189,
      "Un": 10190,
      "love": 10191,
      "pp": 10192,
      "ming": 10193,
      "tren": 10194,
      "vol": 10195,
      "assu": 10196,
      "ons": 10197,
      "free": 10198,
      "14": 10199,
      "ugg": 10200,
      "applic": 10201,
      "past": 10202,
      "ety": 10203,
      "experiences": 10204,
      "groups": 10205,
      "review": 10206,
      "forward": 10207,
      "predic": 10208,
      "align": 10209,
      "special": 10210,
      "evid": 10211,
      "position": 10212,
      "Jo": 10213,
      "tu": 10214,
      "sequence": 10215,
      "Are": 10216,
      "bat": 10217,
      "said": 10218,
      "anti": 10219,
      "ground": 10220,
      "13": 10221,
      "factor": 10222,
      "across": 10223,
      "opportunities": 10224,
      "prime": 10225,
      "narr": 10226,
      "satis": 10227,
      "lie": 10228,
      "media": 10229,
      "did": 10230,
      "ones": 10231,
      "uce": 10232,
      "yourself": 10233,
      "close": 10234,
      "mid": 10235,
      "single": 10236,
      "corpor": 10237,
      "works": 10238,
      "While": 10239,
      "week": 10240,
      "thor": 10241,
      "Lastly": 10242,
      "=\"": 10243,
      "atten": 10244,
      "audience": 10245,
      "pair": 10246,
      "Some": 10247,
      "plac": 10248,
      "professional": 10249,
      "timately": 10250,
      "options": 10251,
      "achieve": 10252,
      "helps": 10253,
      "ever": 10254,
      "cise": 10255,
      "deviation": 10256,
      "related": 10257,
      "progress": 10258,
      "format": 10259,
      "types": 10260,
      "setting": 10261,
      "reader": 10262,
      "\":": 10263,
      "behavior": 10264,
      "higher": 10265,
      "mater": 10266,
      "mus": 10267,
      "ded": 10268,
      "confid": 10269,
      "sli": 10270,
      "exper": 10271,
      "random": 10272,
      "median": 10273,
      "score": 10274,
      "imum": 10275,
      "mi": 10276,
      "object": 10277,
      "feedback": 10278,
      "joy": 10279,
      "ses": 10280,
      "costs": 10281,
      "online": 10282,
      "ious": 10283,
      "cases": 10284,
      "adjust": 10285,
      "ream": 10286,
      "fra": 10287,
      "evidence": 10288,
      "voice": 10289,
      "ody": 10290,
      "bound": 10291,
      "expected": 10292,
      "ining": 10293,
      "ards": 10294,
      "hop": 10295,
      "allows": 10296,
      "invest": 10297,
      "become": 10298,
      "amount": 10299,
      "vative": 10300,
      "formula": 10301,
      "ensive": 10302,
      "promo": 10303,
      "collabor": 10304,
      "book": 10305,
      "til": 10306,
      "emotional": 10307,
      "gs": 10308,
      "worth": 10309,
      "resources": 10310,
      "round": 10311,
      "200": 10312,
      "fut": 10313,
      "Err": 10314,
      "tell": 10315,
      "index": 10316,
      "Do": 10317,
      "perspec": 10318,
      "solve": 10319,
      "items": 10320,
      "occur": 10321,
      ")^": 10322,
      "employees": 10323,
      "expect": 10324,
      "avail": 10325,
      "individuals": 10326,
      "boo": 10327,
      "aps": 10328,
      "seen": 10329,
      "bro": 10330,
      "involves": 10331,
      "categ": 10332,
      "ert": 10333,
      "thinking": 10334,
      "safe": 10335,
      "reduce": 10336,
      "concept": 10337,
      "lock": 10338,
      "pay": 10339,
      "vities": 10340,
      "ges": 10341,
      "compe": 10342,
      "won": 10343,
      "First": 10344,
      "chool": 10345,
      "ush": 10346,
      "integers": 10347,
      "style": 10348,
      "Finally": 10349,
      "ues": 10350,
      "amples": 10351,
      "interpre": 10352,
      "issue": 10353,
      "ier": 10354,
      "stain": 10355,
      "reng": 10356,
      "Error": 10357,
      "allowing": 10358,
      "tasks": 10359,
      "already": 10360,
      "':": 10361,
      "sets": 10362,
      "flo": 10363,
      "ank": 10364,
      "liers": 10365,
      "zer": 10366,
      "connection": 10367,
      "ird": 10368,
      "vious": 10369,
      "reh": 10370,
      "ource": 10371,
      "exc": 10372,
      "ending": 10373,
      "prac": 10374,
      "trying": 10375,
      "providing": 10376,
      "compare": 10377,
      "ry": 10378,
      "cra": 10379,
      "contr": 10380,
      "cell": 10381,
      "transform": 10382,
      "course": 10383,
      "statistical": 10384,
      "future": 10385,
      "activities": 10386,
      "streng": 10387,
      "short": 10388,
      "things": 10389,
      "simil": 10390,
      "situation": 10391,
      "leading": 10392,
      "bon": 10393,
      "fit": 10394,
      "contribut": 10395,
      "knowledge": 10396,
      "techniques": 10397,
      "inten": 10398,
      "convey": 10399,
      "task": 10400,
      "period": 10401,
      "narrative": 10402,
      "::": 10403,
      "initial": 10404,
      "len": 10405,
      "Em": 10406,
      "plot": 10407,
      "ava": 10408,
      "aking": 10409,
      "shop": 10410,
      "mark": 10411,
      "complete": 10412,
      "24": 10413,
      "She": 10414,
      "atic": 10415,
      "body": 10416,
      "market": 10417,
      "additional": 10418,
      "dev": 10419,
      "divis": 10420,
      "sustain": 10421,
      "descrip": 10422,
      "gor": 10423,
      "responsi": 10424,
      "ference": 10425,
      "60": 10426,
      "vent": 10427,
      "compreh": 10428,
      "effect": 10429,
      "chan": 10430,
      "formal": 10431,
      "regular": 10432,
      "perf": 10433,
      "engage": 10434,
      "final": 10435,
      "correspon": 10436,
      "claim": 10437,
      "condition": 10438,
      "hn": 10439,
      "makes": 10440,
      "relev": 10441,
      "tor": 10442,
      "explain": 10443,
      "empty": 10444,
      "With": 10445,
      "ering": 10446,
      "post": 10447,
      "ancial": 10448,
      "big": 10449,
      "scal": 10450,
      "goal": 10451,
      "ient": 10452,
      "tow": 10453,
      "history": 10454,
      "ire": 10455,
      "mage": 10456,
      "remo": 10457,
      "('": 10458,
      "distin": 10459,
      "ken": 10460,
      "starting": 10461,
      "someone": 10462,
      "motiv": 10463,
      "root": 10464,
      "location": 10465,
      "instead": 10466,
      "bring": 10467,
      "Out": 10468,
      "prioriti": 10469,
      "ditions": 10470,
      "thought": 10471,
      "risk": 10472,
      "ager": 10473,
      "ired": 10474,
      "itself": 10475,
      "transp": 10476,
      "Ar": 10477,
      "typically": 10478,
      "_list": 10479,
      "ove": 10480,
      "having": 10481,
      "gl": 10482,
      "frequ": 10483,
      "wards": 10484,
      "box": 10485,
      "inno": 10486,
      "parame": 10487,
      "decisions": 10488,
      "particularly": 10489,
      "products": 10490,
      "</": 10491,
      "nav": 10492,
      "cript": 10493,
      "separ": 10494,
      "ended": 10495,
      "measure": 10496,
      "atform": 10497,
      "base": 10498,
      "details": 10499,
      "output": 10500,
      "ples": 10501,
      "considering": 10502,
      "presents": 10503,
      "gorith": 10504,
      "thoughts": 10505,
      "building": 10506,
      "jour": 10507,
      "estim": 10508,
      "John": 10509,
      "match": 10510,
      "similar": 10511,
      "ially": 10512,
      "normal": 10513,
      "really": 10514,
      "bar": 10515,
      "account": 10516,
      "geome": 10517,
      "choice": 10518,
      "conditions": 10519,
      "ats": 10520,
      "industr": 10521,
      "industry": 10522,
      "ont": 10523,
      "()`": 10524,
      "management": 10525,
      "loop": 10526,
      "mic": 10527,
      "nature": 10528,
      "xim": 10529,
      "doing": 10530,
      "40": 10531,
      "kind": 10532,
      "conversation": 10533,
      "financial": 10534,
      "doesn": 10535,
      "optim": 10536,
      "arti": 10537,
      "sions": 10538,
      "reli": 10539,
      "suit": 10540,
      "far": 10541,
      "smo": 10542,
      "platform": 10543,
      "tives": 10544,
      "Val": 10545,
      "marketing": 10546,
      "wal": 10547,
      "temper": 10548,
      "ata": 10549,
      "guid": 10550,
      "ull": 10551,
      "expert": 10552,
      "suggests": 10553,
      "ination": 10554,
      "udi": 10555,
      "features": 10556,
      "At": 10557,
      "wid": 10558,
      "obser": 10559,
      "store": 10560,
      "house": 10561,
      "functions": 10562,
      "espec": 10563,
      "track": 10564,
      "sition": 10565,
      "especially": 10566,
      "dire": 10567,
      "ither": 10568,
      "unch": 10569,
      "critical": 10570,
      "cast": 10571,
      "(-": 10572,
      "incorpor": 10573,
      "econ": 10574,
      "strugg": 10575,
      "deri": 10576,
      "physical": 10577,
      "readers": 10578,
      "fix": 10579,
      "det": 10580,
      "utions": 10581,
      "algorith": 10582,
      "80": 10583,
      "assistant": 10584,
      "Comp": 10585,
      "navig": 10586,
      "}$": 10587,
      "rece": 10588,
      "construc": 10589,
      "bas": 10590,
      "valuable": 10591,
      "coming": 10592,
      "wind": 10593,
      ":**": 10594,
      "strategies": 10595,
      "polic": 10596,
      "ske": 10597,
      "pu": 10598,
      "fort": 10599,
      "None": 10600,
      "thesis": 10601,
      "wide": 10602,
      "recomm": 10603,
      "concerns": 10604,
      "previous": 10605,
      "perfect": 10606,
      "tures": 10607,
      "tools": 10608,
      "Using": 10609,
      "iled": 10610,
      "und": 10611,
      "abilities": 10612,
      "sof": 10613,
      "alternative": 10614,
      "school": 10615,
      "prepare": 10616,
      "ox": 10617,
      "trip": 10618,
      "ian": 10619,
      "properties": 10620,
      "importance": 10621,
      "technology": 10622,
      "99": 10623,
      "ah": 10624,
      "poly": 10625,
      "associ": 10626,
      "entire": 10627,
      "numer": 10628,
      "hind": 10629,
      "attention": 10630,
      "visit": 10631,
      "recog": 10632,
      "enhance": 10633,
      "communication": 10634,
      "exact": 10635,
      "ood": 10636,
      "relevant": 10637,
      "tradi": 10638,
      "imag": 10639,
      "relative": 10640,
      "reve": 10641,
      "solutions": 10642,
      "employee": 10643,
      "diffic": 10644,
      "ney": 10645,
      "mor": 10646,
      "town": 10647,
      "ctor": 10648,
      "outliers": 10649,
      "encour": 10650,
      "->": 10651,
      "approxim": 10652,
      "secur": 10653,
      "Com": 10654,
      "users": 10655,
      "available": 10656,
      "away": 10657,
      "constant": 10658,
      "assump": 10659,
      "rich": 10660,
      "weight": 10661,
      "Lo": 10662,
      "handle": 10663,
      "consistent": 10664,
      "training": 10665,
      "independent": 10666,
      "har": 10667,
      "Cre": 10668,
      "True": 10669,
      "2x": 10670,
      "bed": 10671,
      "discuss": 10672,
      "Over": 10673,
      "usu": 10674,
      "arguments": 10675,
      "aling": 10676,
      "ection": 10677,
      "distance": 10678,
      "services": 10679,
      "demon": 10680,
      "radi": 10681,
      "Inst": 10682,
      "lec": 10683,
      "lit": 10684,
      "Sp": 10685,
      "].": 10686,
      "ich": 10687,
      "hypo": 10688,
      "provided": 10689,
      "tice": 10690,
      "extre": 10691,
      "avor": 10692,
      "Emily": 10693,
      "Str": 10694,
      "dynam": 10695,
      "resid": 10696,
      "regression": 10697,
      "strings": 10698,
      "lay": 10699,
      "sun": 10700,
      "getting": 10701,
      "bur": 10702,
      "utes": 10703,
      "load": 10704,
      "ned": 10705,
      "ton": 10706,
      "Alex": 10707,
      "represents": 10708,
      "22": 10709,
      "rix": 10710,
      "adap": 10711,
      "errors": 10712,
      "month": 10713,
      "Or": 10714,
      "involve": 10715,
      "written": 10716,
      "jects": 10717,
      "aris": 10718,
      "sides": 10719,
      "author": 10720,
      "insp": 10721,
      "commit": 10722,
      "dict": 10723,
      "analyze": 10724,
      "implementation": 10725,
      "demonstr": 10726,
      "ception": 10727,
      "90": 10728,
      "Next": 10729,
      "color": 10730,
      "zero": 10731,
      "choose": 10732,
      "levels": 10733,
      "service": 10734,
      "simply": 10735,
      "interval": 10736,
      "?\"": 10737,
      "above": 10738,
      "youn": 10739,
      "void": 10740,
      "war": 10741,
      "Res": 10742,
      "third": 10743,
      "oth": 10744,
      "elec": 10745,
      "needed": 10746,
      "pack": 10747,
      "prot": 10748,
      "duce": 10749,
      "maj": 10750,
      "section": 10751,
      "ging": 10752,
      "compon": 10753,
      "display": 10754,
      "greater": 10755,
      "sor": 10756,
      "aving": 10757,
      "guide": 10758,
      "trust": 10759,
      "mail": 10760,
      "why": 10761,
      "price": 10762,
      "switch": 10763,
      "Data": 10764,
      "dou": 10765,
      "near": 10766,
      "mate": 10767,
      "ler": 10768,
      "sched": 10769,
      "ify": 10770,
      "assess": 10771,
      "complexity": 10772,
      "belie": 10773,
      "stress": 10774,
      "outs": 10775,
      "trends": 10776,
      "introduc": 10777,
      "Eng": 10778,
      "false": 10779,
      "fig": 10780,
      "ste": 10781,
      "emotions": 10782,
      "repe": 10783,
      "wr": 10784,
      "extreme": 10785,
      "coefficient": 10786,
      "That": 10787,
      "planning": 10788,
      "affect": 10789,
      "either": 10790,
      "members": 10791,
      "behind": 10792,
      "matrix": 10793,
      "ined": 10794,
      "emphas": 10795,
      "py": 10796,
      "Ul": 10797,
      "studi": 10798,
      "moment": 10799,
      "21": 10800,
      "simplif": 10801,
      "lack": 10802,
      "sphere": 10803,
      "--------": 10804,
      "teach": 10805,
      "hope": 10806,
      "recent": 10807,
      "significantly": 10808,
      "security": 10809,
      "problems": 10810,
      "sequences": 10811,
      "preci": 10812,
      "ili": 10813,
      "orical": 10814,
      "')": 10815,
      "False": 10816,
      "ift": 10817,
      "23": 10818,
      "tics": 10819,
      "purpose": 10820,
      "bot": 10821,
      "theory": 10822,
      "option": 10823,
      "sugges": 10824,
      "materials": 10825,
      "ators": 10826,
      "infin": 10827,
      "ery": 10828,
      "outcomes": 10829,
      "Gi": 10830,
      "larger": 10831,
      "game": 10832,
      "underlying": 10833,
      "treat": 10834,
      "implic": 10835,
      "mand": 10836,
      "75": 10837,
      "New": 10838,
      "pie": 10839,
      "stack": 10840,
      "connect": 10841,
      "aware": 10842,
      "frame": 10843,
      "against": 10844,
      "differences": 10845,
      "called": 10846,
      "modu": 10847,
      "izations": 10848,
      "Me": 10849,
      "highlight": 10850,
      "cing": 10851,
      "particip": 10852,
      "ON": 10853,
      "venue": 10854,
      "eper": 10855,
      "season": 10856,
      "lease": 10857,
      "directly": 10858,
      "among": 10859,
      "enjoy": 10860,
      "mach": 10861,
      "selves": 10862,
      "indicates": 10863,
      "requires": 10864,
      "enter": 10865,
      "aged": 10866,
      "bilities": 10867,
      "Ultimately": 10868,
      "willing": 10869,
      "gon": 10870,
      "dle": 10871,
      "wom": 10872,
      "core": 10873,
      "distinct": 10874,
      "ket": 10875,
      "cepts": 10876,
      "colum": 10877,
      "strategy": 10878,
      "ilt": 10879,
      "offe": 10880,
      "quick": 10881,
      "Alternative": 10882,
      "satisf": 10883,
      "combination": 10884,
      "student": 10885,
      "funda": 10886,
      "interpret": 10887,
      "docu": 10888,
      "recommend": 10889,
      "grad": 10890,
      "moder": 10891,
      "law": 10892,
      "hard": 10893,
      "ral": 10894,
      "informed": 10895,
      "Per": 10896,
      "sle": 10897,
      "heart": 10898,
      "exer": 10899,
      "hab": 10900,
      "ferences": 10901,
      "exploring": 10902,
      "Best": 10903,
      "atives": 10904,
      "report": 10905,
      "ening": 10906,
      "tices": 10907,
      "raise": 10908,
      "watch": 10909,
      "education": 10910,
      "cording": 10911,
      "compan": 10912,
      "feeling": 10913,
      "Please": 10914,
      "adding": 10915,
      "SE": 10916,
      "depth": 10917,
      "wise": 10918,
      "bor": 10919,
      "inci": 10920,
      "continue": 10921,
      "Ac": 10922,
      "[]": 10923,
      "hon": 10924,
      "pal": 10925,
      "Then": 10926,
      "generate": 10927,
      "interested": 10928,
      "culture": 10929,
      "Remember": 10930,
      "climbs": 10931,
      "entially": 10932,
      "met": 10933,
      "height": 10934,
      "ots": 10935,
      "partner": 10936,
      "appear": 10937,
      "meeting": 10938,
      "major": 10939,
      "Imp": 10940,
      "direction": 10941,
      "summary": 10942,
      "Mo": 10943,
      "minutes": 10944,
      "describe": 10945,
      "econom": 10946,
      "gest": 10947,
      "Se": 10948,
      "gard": 10949,
      "along": 10950,
      "aves": 10951,
      "tural": 10952,
      "door": 10953,
      "arily": 10954,
      "prioritize": 10955,
      "full": 10956,
      "objects": 10957,
      "eyes": 10958,
      "Alternatively": 10959,
      "istics": 10960,
      "phrases": 10961,
      "leg": 10962,
      "effects": 10963,
      "skew": 10964,
      "music": 10965,
      "confidence": 10966,
      "creative": 10967,
      "shape": 10968,
      "hes": 10969,
      "haps": 10970,
      "Pr": 10971,
      "recogn": 10972,
      "ition": 10973,
      "ban": 10974,
      "assert": 10975,
      "added": 10976,
      "engine": 10977,
      "45": 10978,
      "fast": 10979,
      "labe": 10980,
      "aspects": 10981,
      "ames": 10982,
      "inner": 10983,
      "believe": 10984,
      "focusing": 10985,
      "ond": 10986,
      "resh": 10987,
      "four": 10988,
      "},": 10989,
      "follows": 10990,
      "preser": 10991,
      "orem": 10992,
      "ified": 10993,
      "children": 10994,
      "finding": 10995,
      "sidered": 10996,
      "Output": 10997,
      "live": 10998,
      "pho": 10999,
      "percent": 11000,
      "is_": 11001,
      "considered": 11002,
      "])": 11003,
      "Sy": 11004,
      "presence": 11005,
      "evol": 11006,
      "enced": 11007,
      "^{": 11008,
      "models": 11009,
      "defined": 11010,
      "purch": 11011,
      "ann": 11012,
      "pic": 11013,
      "zz": 11014,
      "force": 11015,
      "environmental": 11016,
      "rati": 11017,
      "increasing": 11018,
      "transport": 11019,
      "resulting": 11020,
      "fundamental": 11021,
      "Given": 11022,
      "ordin": 11023,
      "Each": 11024,
      "ibility": 11025,
      "vision": 11026,
      "done": 11027,
      "super": 11028,
      "subject": 11029,
      "influence": 11030,
      "expertise": 11031,
      "piece": 11032,
      "accurate": 11033,
      "daily": 11034,
      "enge": 11035,
      "cum": 11036,
      "<<": 11037,
      "approaches": 11038,
      "actice": 11039,
      "counter": 11040,
      "minim": 11041,
      "}\\": 11042,
      "\".": 11043,
      "sorted": 11044,
      "modif": 11045,
      "aur": 11046,
      "camp": 11047,
      "explan": 11048,
      "inder": 11049,
      "difficult": 11050,
      "smaller": 11051,
      "reasoning": 11052,
      "challenging": 11053,
      "spac": 11054,
      "examples": 11055,
      "gover": 11056,
      "fill": 11057,
      "cles": 11058,
      "mix": 11059,
      "dro": 11060,
      "states": 11061,
      "tax": 11062,
      "wa": 11063,
      "journey": 11064,
      "until": 11065,
      "friends": 11066,
      "bud": 11067,
      "opportunity": 11068,
      "ring": 11069,
      "started": 11070,
      "suggestions": 11071,
      "atmo": 11072,
      "Wor": 11073,
      "ids": 11074,
      "changed": 11075,
      "salary": 11076,
      "IN": 11077,
      "once": 11078,
      "evaluate": 11079,
      "Po": 11080,
      "Id": 11081,
      "ping": 11082,
      "che": 11083,
      "Le": 11084,
      "maximum": 11085,
      "contains": 11086,
      "science": 11087,
      "approximately": 11088,
      "Sh": 11089,
      "pers": 11090,
      "70": 11091,
      "inc": 11092,
      "decre": 11093,
      "stream": 11094,
      "spread": 11095,
      "['": 11096,
      "secre": 11097,
      "tes": 11098,
      "Ty": 11099,
      "email": 11100,
      "sq": 11101,
      "vert": 11102,
      "property": 11103,
      "sole": 11104,
      "friendly": 11105,
      "gives": 11106,
      "challenge": 11107,
      "Value": 11108,
      "mathematical": 11109,
      "respect": 11110,
      "deci": 11111,
      "today": 11112,
      "ane": 11113,
      "traditional": 11114,
      "versity": 11115,
      "region": 11116,
      "continuous": 11117,
      "deeper": 11118,
      "interests": 11119,
      "stri": 11120,
      "scenari": 11121,
      "Af": 11122,
      "techn": 11123,
      "conflic": 11124,
      "mission": 11125,
      "equip": 11126,
      "node": 11127,
      "aren": 11128,
      "dark": 11129,
      "prevent": 11130,
      "meric": 11131,
      "perspective": 11132,
      "indicate": 11133,
      "gent": 11134,
      "spl": 11135,
      "ease": 11136,
      "tig": 11137,
      "aut": 11138,
      "loss": 11139,
      "note": 11140,
      "months": 11141,
      "increased": 11142,
      "paren": 11143,
      "Instead": 11144,
      "bsite": 11145,
      "mut": 11146,
      "observ": 11147,
      "brand": 11148,
      "actually": 11149,
      "derivative": 11150,
      "useful": 11151,
      "Americ": 11152,
      "blo": 11153,
      "edit": 11154,
      "temperature": 11155,
      "early": 11156,
      "towards": 11157,
      "lier": 11158,
      "source": 11159,
      "hood": 11160,
[...]
